node {
  name: "inputs"
  op: "Placeholder"
  attr {
    key: "dtype"
    value {
      type: DT_FLOAT
    }
  }
  attr {
    key: "shape"
    value {
      shape {
        dim {
          size: -1
        }
        dim {
          size: 4
        }
      }
    }
  }
}
node {
  name: "cvs/begin"
  op: "Const"
  attr {
    key: "dtype"
    value {
      type: DT_INT32
    }
  }
  attr {
    key: "value"
    value {
      tensor {
        dtype: DT_INT32
        tensor_shape {
          dim {
            size: 2
          }
        }
        tensor_content: "\000\000\000\000\000\000\000\000"
      }
    }
  }
}
node {
  name: "cvs/size"
  op: "Const"
  attr {
    key: "dtype"
    value {
      type: DT_INT32
    }
  }
  attr {
    key: "value"
    value {
      tensor {
        dtype: DT_INT32
        tensor_shape {
          dim {
            size: 2
          }
        }
        tensor_content: "\377\377\377\377\002\000\000\000"
      }
    }
  }
}
node {
  name: "cvs"
  op: "Slice"
  input: "inputs"
  input: "cvs/begin"
  input: "cvs/size"
  attr {
    key: "Index"
    value {
      type: DT_INT32
    }
  }
  attr {
    key: "T"
    value {
      type: DT_FLOAT
    }
  }
}
node {
  name: "input_shift"
  op: "Const"
  attr {
    key: "dtype"
    value {
      type: DT_FLOAT
    }
  }
  attr {
    key: "value"
    value {
      tensor {
        dtype: DT_FLOAT
        tensor_shape {
          dim {
            size: 2
          }
        }
        tensor_content: "\000\000\000\000\000\000\000\000"
      }
    }
  }
}
node {
  name: "input_shift/read"
  op: "Identity"
  input: "input_shift"
  attr {
    key: "T"
    value {
      type: DT_FLOAT
    }
  }
  attr {
    key: "_class"
    value {
      list {
        s: "loc:@input_shift"
      }
    }
  }
}
node {
  name: "input_scale"
  op: "Const"
  attr {
    key: "dtype"
    value {
      type: DT_FLOAT
    }
  }
  attr {
    key: "value"
    value {
      tensor {
        dtype: DT_FLOAT
        tensor_shape {
          dim {
            size: 2
          }
        }
        tensor_content: "\000\000\200?\000\000\200?"
      }
    }
  }
}
node {
  name: "input_scale/read"
  op: "Identity"
  input: "input_scale"
  attr {
    key: "T"
    value {
      type: DT_FLOAT
    }
  }
  attr {
    key: "_class"
    value {
      list {
        s: "loc:@input_scale"
      }
    }
  }
}
node {
  name: "sub_1"
  op: "Sub"
  input: "cvs"
  input: "input_shift/read"
  attr {
    key: "T"
    value {
      type: DT_FLOAT
    }
  }
}
node {
  name: "mul_1"
  op: "Mul"
  input: "sub_1"
  input: "input_scale/read"
  attr {
    key: "T"
    value {
      type: DT_FLOAT
    }
  }
}
node {
  name: "angles/begin"
  op: "Const"
  attr {
    key: "dtype"
    value {
      type: DT_INT32
    }
  }
  attr {
    key: "value"
    value {
      tensor {
        dtype: DT_INT32
        tensor_shape {
          dim {
            size: 2
          }
        }
        tensor_content: "\000\000\000\000\000\000\000\000"
      }
    }
  }
}
node {
  name: "angles/size"
  op: "Const"
  attr {
    key: "dtype"
    value {
      type: DT_INT32
    }
  }
  attr {
    key: "value"
    value {
      tensor {
        dtype: DT_INT32
        tensor_shape {
          dim {
            size: 2
          }
        }
        tensor_content: "\377\377\377\377\002\000\000\000"
      }
    }
  }
}
node {
  name: "angles"
  op: "Slice"
  input: "mul_1"
  input: "angles/begin"
  input: "angles/size"
  attr {
    key: "Index"
    value {
      type: DT_INT32
    }
  }
  attr {
    key: "T"
    value {
      type: DT_FLOAT
    }
  }
}
node {
  name: "dists/begin"
  op: "Const"
  attr {
    key: "dtype"
    value {
      type: DT_INT32
    }
  }
  attr {
    key: "value"
    value {
      tensor {
        dtype: DT_INT32
        tensor_shape {
          dim {
            size: 2
          }
        }
        tensor_content: "\000\000\000\000\002\000\000\000"
      }
    }
  }
}
node {
  name: "dists/size"
  op: "Const"
  attr {
    key: "dtype"
    value {
      type: DT_INT32
    }
  }
  attr {
    key: "value"
    value {
      tensor {
        dtype: DT_INT32
        tensor_shape {
          dim {
            size: 2
          }
        }
        tensor_content: "\377\377\377\377\000\000\000\000"
      }
    }
  }
}
node {
  name: "dists"
  op: "Slice"
  input: "mul_1"
  input: "dists/begin"
  input: "dists/size"
  attr {
    key: "Index"
    value {
      type: DT_INT32
    }
  }
  attr {
    key: "T"
    value {
      type: DT_FLOAT
    }
  }
}
node {
  name: "Cos"
  op: "Cos"
  input: "angles"
  attr {
    key: "T"
    value {
      type: DT_FLOAT
    }
  }
}
node {
  name: "Sin"
  op: "Sin"
  input: "angles"
  attr {
    key: "T"
    value {
      type: DT_FLOAT
    }
  }
}
node {
  name: "concat/axis"
  op: "Const"
  attr {
    key: "dtype"
    value {
      type: DT_INT32
    }
  }
  attr {
    key: "value"
    value {
      tensor {
        dtype: DT_INT32
        tensor_shape {
        }
        int_val: 1
      }
    }
  }
}
node {
  name: "concat"
  op: "ConcatV2"
  input: "Cos"
  input: "Sin"
  input: "dists"
  input: "concat/axis"
  attr {
    key: "N"
    value {
      i: 3
    }
  }
  attr {
    key: "T"
    value {
      type: DT_FLOAT
    }
  }
  attr {
    key: "Tidx"
    value {
      type: DT_INT32
    }
  }
}
node {
  name: "layer_0/matrix"
  op: "Const"
  attr {
    key: "dtype"
    value {
      type: DT_FLOAT
    }
  }
  attr {
    key: "value"
    value {
      tensor {
        dtype: DT_FLOAT
        tensor_shape {
          dim {
            size: 4
          }
          dim {
            size: 200
          }
        }
        tensor_content: "N\327\343\275\316\000\204\275\270\272\334=\275\335>\275\275l\262\274X.\"=\342\304\255\275\035$\006\276\226\006\314<\350#H\275\027\240\300\276\004\340\276>c\000U\276\022)\372\274,\255\003\276\233\014\">m\034\021\276\360\002S\276T\000\310\275Ry\304=\354\211e\275\027\312\342\274Q\300\210=N\005K\276\356\235\305\275\277\017\000=I\233s=f#\273<\350\013)\274+M{\275\023U\241\275\364\2653\276,\226v<\260\375\210\275\323\n\360\274\236l\005=\375\031\212>+\021,\275\3364\205=\'\336\322=\367\361\355\275\272\237\037=\236{\257\272z\366G\275\\\276\013\274\270\200\355=\303]\252\275\003L\014<i-\332\273}\322$\276\263c\032\275\004\367\274=5X^=,pb=@\031\252>b\324\031==\026<\276,\303\031=\243s\205\273\365x\256<a\242\020\275\247l\241=\224\364\205\275\tLO=\177\346\003\275\206a-\276\3630\257<)\232P\276v+\t\275$\027.\276\263\214\025=[}\343<\356\306q=\365\217\001=T\033\247=\014\027\346\2756q\355\275\371\332\243\275\r\273\216=\356\t$\274m\r\215>\370\202\">+\311\r>0Hi>Lr\010\276\253\255\177\276s\006\202=A\036\237\275\034z\207\275Z\325\203=3>x:\r\260\020\275w\247\026>\\wK=u\257v\275,\311w=\376i\360\274Y\367\316\275H\315\217=\035>\353\274#\372W\275\317\326\374\274\022\233\252=39\260=Yc\221\274J\251\222=-\035/\276\320\246.\275\327\215F=\375\n\374=C\002!=\016\250\326=TcS=\302pd\275I&\275<\313\025\356=-%\241\275\311A\232\275\020I\332\274SP\234\275rA\331=\220#\362\275\342\271\212\276ei\021\276\243\357\037>F&\233<\334\316V\275Pv\232=\361\356\016\276}\233\312=6{H\272U/\307=>\241\201\275\320\205\\>\231\276\003=)*\246\275\177\325\014\276\274L\255=\216\343\200\275\356.e=X\362]<\266\r.\276\206\275\230=J\0219;\237/\253\275\250b\202\275\276<L\276W\352\230>}\316\220<+\307\273=\226}\214\274\244E\252\274#\365\270=K<\250=\344\023\342=\345z\005\276\003\221\224\275\335\205O=t\372\214\276\010\306\327;*\274^\274\302:\017<\265R:\2762\330\343\274\002w\276=\030=\017>\243\377`>\270\353}=\2702\371=t\216\t>\331\302\270=\256N\001>w\212\013\275t\241\002\276[\310\336\275\375\275\345=\250.\020\275\312]7>3\024i\276J\345(\276\006\2011>\307\217:=\302\365B>.\351,\274Z\266#\275\022.2\275\252R\256=0\323\002\276\252\007\227\2756\322D\276\230\210)=c\325\324\275\240\322E=\274\325\003>\346[\002=q\306 \276\013\235\350<\336\276!\2765\322Z\275\035s\344\275\nn\216\275\260KE\276\213\202\315\273*t\"=o\027\360\275|9R\275\362mL<\304\306\255=\272\300+\274\371\270\257\274\220\350>>T#\314\275\031m\364=\002#S>\321H\326=\310\240\305<0\004\'\274R\270\002>\304\'+\274\024Jl<\317\n\251=\206\332\227=\203S{\276Iw<\275s:\322=j\370\206\275\177\026\377<\277\367z\276\345C\237=f\022\356=\300\205\204;u\224\261\275\252\177Y\274\027H\232\2755\026\255=&\025b<\027\273\034>+I\232=w\r\303=\254\363O>^fZ\275\t\202\033\275 \036\t>\306w\t>\274\236.<\340\221\226<\301\024\017>\017\322\256=\247\370\340=pS\037\276\272b\324\275\311\254+\276\200\030\277\274\350\322\367:\035\210\335<\245\210*\275L\261\201=\002\252\252\274\031\n\256=\207.<;\201\313\356\274\251\345\020\275S5J\275\007{!\274\303\261\366\275`\014\322\275\232{\376:\255\354\327\275\000\333\346\275%\034\374\275\257\017!\275\004\242\001\274~Q\302=\010G\352\275\256\247\037\274\353O\005>(JB\275e\233\035=\010\"\314:\334\345\327\274:56=\334/\037>\331X?>\235\325\253\274\025\326X>\222\344\323\275X\n\302=\013\277^>\313Z\244<\270\325\252=\253\315\360<gw\305\274]\264\253\275\232(A\275\252\367\322\275oZP=\311xY\275W\rY:l=O\276\270\371u\276\344#\014\275\205\361\016=\341\025\346<}K.>\335S\331\275\261eG\275\t\263\265\275kx\036>\365\353a\2753]L\275\362\242+<\320\275I>x\300F>\203\027a>\340\024\n\276\177\000\005<\226\316,\275\265\306M\275\370\255\206\275\233W\223\274\013D(\276\367\021\345=5L#\276f\007\2179\340\220s\275`a\244=`*Q<\261\3670\275@.\376:\317\332|<Ne\221=O\036\341\274\031)%\276\210*\022=\354\232\213\275\215\340\013\276[\341\325=l<\261\275$\\\037=\017\346\023\276x\0210>(\177*\276G\005\361=.}\276=zY\006\275\236fY\274W\302\215<l\030\036\2763N#\274\260\373\266\273\266.\313\274\322\n\324\275_\225\334\275\025\324\236\275\321\200\375<\334 \231>\027\316.=\334u\272<\237/\311\275.\271\t>\235\336\370\275ua\245=\"yb=\014\325\317<%6\017\276\317\240\273<\337*,\276.=\n>\262,K>sM\005>]b\313\275\327\340\243=\365\t}=\256n\r\276w\227\263=]\240\346\275\021\007\337=\356\217\203=\224\334c=\230\2557>\315\335\t\276\366\251\272=B$\266\275!\007X\276\224\257\022\273\226\340\022>h\217\277\274\207\016=\276\203\330\\\276Ol*>\010\334r=<S\232\275\333\034\300\275\3503 =\354\345>=;U6>\214\222\207=\203\321\236>@\350t\276\002\350\003>~\352\271=\226\rt>\362\032x=\307_ =\032\027;=\003z\322\272\305G\"\276@\310\241=7\226\377\274Ar]\276E\240\344\274\243a\276=\241Vj>\267\264\005>\344\222,=\232\223H=\023\025\247\275\351\346\271=\304\257\343;y\375]\275\353\232\026\275\003p\261=2\"\231\274\357Tu\275^\366\242\275$p&>\037\356S\276\034\272\302\275\223!\200<\0309r>\217\027&\276\214\333\214=\272U\021>\013\3535>r\264\233\275\202\025o>\316\'C\276O \n=c7Y>@\277\223=\010TL\2766\333`>6\302\t\275\014\306\031<;g\321\275h\212\023\276\246\304\003\275\260\"7\275\262yA=\013\215*>\021\306*\276\314\251\334\275\237wv=#\004\365\275\363m\337\275k\241#>\371FC<sY\362=\277\237w\276k\262\365\274\274\022\345=\302\003\335=2\247\260=\253\203.=<\032\024>x\251\031>4lg\275\246\236\350=\307\266C>\323nN\275\362oo\276A07;+\352\321=\207D`\275S\2778\276\246B9>\225p\'=3\366;\276`\014\032>p\"1\276\022r\216\273\340\364\033\275\017\331+=\034\336\001\276\010KD=k}Y\275\2737\342=\201\337\253=+\356\341<\264\374\265=o\332\'\275\016\220\206\275\216\347^\274\375Z\005\275\357\306\262\274\360,\203\275\033\254\235>\010\034.\276\344\375\016\275\333]9\275\311\305-=\035l4>\031\303:\275\n\252\007\275\334{\025<)\366\226\274\014\270v=\026Fx8\265\272\205>]\326\213\274<\210.>{Fq>_M\244=t\2409=\240c\345;\217GU\276\273\016\217\275LO\243\274\243\246p<`\010\035=\321\010\331\274\234g\226\276\324<\313=\'\241H\275C\345g\275K\246\2108y\177\266\273&YD\275\370\342\260<\204P\235=\213\260~=Ow\236>\333\245\177\275h\263\243\275w\270\024=\307\227\234=\177G\255\275\272t\304\275UI\246\275\230\233\237\275v\332V=\026*\231=\270\036\271<7i!\275\203\224(\276~\3057=\216}\010>\031\364\353;L%\357\273\374\024\200>\225+\033=\363\212\212;\030\262O\276\213\003\024\275\301\222\247<\343\364\360<4\257L>{\363U>\000\270\014>%\272\230=\277\226n=^\235\255\275\"\034v=m\236\n\276\277Lv<\202)\027\275r;\256>\300\251\237\275 \006\340<\231\351\224\2755\372\235\275\221\362\017= XL=\207\320\\=\202\273\301=\315I\243\275\000\361\324\274\227x\366\275\030\'E=\260\312\327=\352r4<\033n\217=\205!\313\274\376\343k\275\271\263o>\357G\010\2719\036V=\215\242\214=\037\037l\276\312\310\301=J5^>o\373h\273G@W=\320\311A\275\3047E\276i\344S\276\313\220\026=\026\333k=\2550\213<\376k\276=>\306\365=A\211\231>c$\274=\207\221\254\275\014p\020\276\361%\371;\\P!\275\354\002\372<\341^\370<\277f$\276\322\225\010\273\250\355\030\276zJ\023>I\226\014>y\320E<\272~W<\021\341G>\020a\357\275\355IP>\335B\223=\375\t\252\275C@A\275\177!\335\275\203\025\302=\263a\252=<\000\023\276I\377\'=\306\335\277\274\307\224\t>-W\023>\315VW\275\371b\217<\275\221\207\274\215Ds\274\240\243D\274\033\014\271\275l\303\200=%8\310\275D\340\233<q\323\364<g;\364\274\024\357l=\243a{\275a\no\275\241\201\022>\243\266)=\311\361\325\275T]\032\276$\254\">\300\026\014=\324-\336\275\223g\273\274\336{\235\275\177\340/>\360~3\275\326\343T\275\225y|=\300\252\306\274i\260\016>dI\372\274\365.\014<\013\021\200=@\317\214=1\350\177\2743\345,=\214\305\326\272UY\255=\221\353\327<\274\"k>\244\336\347;u\351O\276\305\2366\276rS\325=Z\230\320<\216\023\030\276\270\267\231=\222\200\317=Z\226T>\221\001\261=\274{\244<\360\027V\2743\255\214\275\026\251E>\346\177\210\275\254t?<\355\026\262\275\340\"\367<\356\2141>l\033u\2738\261\271=*\204F\276\177\353$\276\000\253E\275w\005\030\276\345\263\227=-\2504\276\017\246\300=\313ni=K\220l=\317&\016>\271\017O=\271\003\262\275\000\013&\275i\337\364<\222D\240=w\204\004\276*&\013\275\002g\270\275\177\225Q\276x\317\207=\005?#\274\032\321\013>\216|\272<D?\000\276\035}_=-\334\020=\\F\357=\"\3333=o\224\243<\032\257\034\272\307\322\036>G\350\303\275:\177\314=\332\t\036\276\010\265\361<\324\221\246:0|\237\275\233\000D=\035\233c=\262H\313=\276\245\">\235,\246\274\323e\302>Y\3206\276{\331\265=\244A\014>\235\005\334\275KH\004\276\277\341\262=\327\022\000\275O\255o>\243\340\360=}\344T<\343\366\242=\341\220\302\275\312\n\020\276\224$\207=\260\223\237\275\302%\366\274r\n\302\274\025\233\232\2741>&\276&\277=\276\343\002\263\274\373\002n>\222\352\344=<+\370\274\023tC>\203v\312\275\303\224\260\2758\344=>\241\275\334\275\300~*=k\311^\275\357\207\211\276\206bi\274\021\261\014\276\315\326\377\275\207Z\264\275\020\t\035\275\244\010F<\245s\272=\301i\002<\023FJ=*{u=Z3[=7\347\211>Z\326\256\274\213e\310<:c\210=T\303\220>^\367==\237\2431\275X\374\030\276\314P\010\275\224\017\257=\223,y<2\221\363=\237m\363=\\\177\376\275\333\263\200>z\026!\275B\317\254\275\245\200 \275\006\223|=\327\240>\275]\243I>\004\346\226=\037>2\272\r0\210;"
      }
    }
  }
}
node {
  name: "layer_0/matrix/read"
  op: "Identity"
  input: "layer_0/matrix"
  attr {
    key: "T"
    value {
      type: DT_FLOAT
    }
  }
  attr {
    key: "_class"
    value {
      list {
        s: "loc:@layer_0/matrix"
      }
    }
  }
}
node {
  name: "layer_0/bias"
  op: "Const"
  attr {
    key: "dtype"
    value {
      type: DT_FLOAT
    }
  }
  attr {
    key: "value"
    value {
      tensor {
        dtype: DT_FLOAT
        tensor_shape {
          dim {
            size: 200
          }
        }
        tensor_content: "B\000\277\277\021~\036>\353\361\006<k\3141\2774\337%?\316\305\340>d\346\206\277=Cc?\217\214\216\277 a\205>$\371\336>u)\r?\3451d>\367\257&\275\236\377\017\276)\225\227?C\210\203=-j\300?\346\244\253?\177\t\236\277\320\203\372?\213\354g>\207\004\020\276\304\252\367\274R\315\276?08\270:\232~4>\320\363\301\276\362\017\325>\344Z\211\273{k\350>P\365\370\276\345\330Q\277\006\241\313>\223\356\362\276\362\336\302?_s&\276\373\322\223?z\'0?\356\361\237=\237\355\205>\346\001\323?\037\002s?\267,\200\277\324q\370>3\201Y>\343|\344\276L\334\356\276\026C\343\277t\373\265?\303Wj?\003\333\275\277\217\014\246\277\327\247\376>\331\202\210\276\266,\245\276&\307\206\277rw\247?\302.\030?H6\"\277\213\363b\277=\230\357\276\2215\212\277#\023c?\307\027\016=\024\304\024\277\210\342\201?\221\nA?\224\037\025=\235\353W\276\276J$\277Y)\376>\003\t\305>\206UA>\005\317F\277z\230\276<\362\337\223\277\014|\017\300#4\r=\016\242\334?\3655\215>:\332G=\346\220\242=\326/]?\n{d\276\311Jo\276\177\023\206\277\332^\226>\365\332;\276\024\225\244\277rM\273\274p*\213?w\300\214\276E\271i\277\330|\367?\252\016\330=\337\005\001\277,\240*?\233p\030>:U\204\277\324\363\204\277%g\370\2759\035\312?\330\314\213?\344\275n?[l\n\277H\357\201?l\335>\277\203^Z?7\203r?\262\253\267?g\305\023=}\337\246\276\211\244\273\276=\230\223\2751\225\021?\300\211\257>+^\317\277_\341\260?(\030\317?\230\260w\276\264ru?\010\332\211\277\r\223u>\251\266\273?\000L\313\277Z\350{\277\351\n\216?r\025o?\252\'\340\277\035\t3\277\362\r~\277\331\372T>\036[\\=\360\334\235\277s\230\031\2767d\212\276r\302T?v\337\033\300\222\\\r\277\na\225?\340\320\305\277\275\216\013\277Q7\205?L\252\230\277L14?v\223\345\276i\273\025\277\342\324j?C\000\253\277=\177\222?\256c\036\277#\346\376\275G\342\270?w\037\262;\244\320\265>}\013Q\277(\232\254\277Y\255\275=\300\001\365\276\352\262A?dNb\276\357\273\310>\232&b?\005\271\224>\r\370\251\277\335\013\003\300\031\330\357\276\026\254,?\315\227\234>\253\243\246\276\000\300\277\277\360X\213?\027\205W?\275+\312\276\224\002\363?\007\r5?\r\315\373\276\020\345\231>\373\340P\276\251\254\305\275d\3308?J\322\t?\270+6>\2151N>R\330\223\276%\t\203?\276Ny>-\371\257\276b\237K>>\177L\277\000\032\211\277%\376\377>\347\342G\277\232\274\342=\260L\327\275\347n.\277\355\004t\274`\006*>\302\226\263?"
      }
    }
  }
}
node {
  name: "layer_0/bias/read"
  op: "Identity"
  input: "layer_0/bias"
  attr {
    key: "T"
    value {
      type: DT_FLOAT
    }
  }
  attr {
    key: "_class"
    value {
      list {
        s: "loc:@layer_0/bias"
      }
    }
  }
}
node {
  name: "layer_0/MatMul"
  op: "MatMul"
  input: "concat"
  input: "layer_0/matrix/read"
  attr {
    key: "T"
    value {
      type: DT_FLOAT
    }
  }
  attr {
    key: "transpose_a"
    value {
      b: false
    }
  }
  attr {
    key: "transpose_b"
    value {
      b: false
    }
  }
}
node {
  name: "layer_0/add"
  op: "Add"
  input: "layer_0/MatMul"
  input: "layer_0/bias/read"
  attr {
    key: "T"
    value {
      type: DT_FLOAT
    }
  }
}
node {
  name: "Tanh"
  op: "Tanh"
  input: "layer_0/add"
  attr {
    key: "T"
    value {
      type: DT_FLOAT
    }
  }
}
node {
  name: "layer_1/matrix"
  op: "Const"
  attr {
    key: "dtype"
    value {
      type: DT_FLOAT
    }
  }
  attr {
    key: "value"
    value {
      tensor {
        dtype: DT_FLOAT
        tensor_shape {
          dim {
            size: 200
          }
          dim {
            size: 200
          }
        }
        tensor_content: "\214\227\3419\306\231\026\274\221\321\343\274\t\177\265<j/~\274\320\273A=E\327\230\275\323\321\237=Ce0;O\253\361\274Hp\246\275\232\212\371<\277\035J=\217\t\275\274\372\227Y<\266<\377\275\200|\001=\356\330$\275\373&\243\2743\237\006\274\244;\262\273\034\031\353=\036y\306<\326L\010=\223\275t\275Po\210=\000\346)\275\"\310\213<?\330\257< r\033=\343[\320=\204/\307\275\230\354\243\275\3566\226\275B\355\207=\377\351]\274\207\321\275\275\227J\206=\305$\336<-Q\372\275G\250Y=\333;\022\275\030*Y\275\353\317\250\275\007\255\t=\322t\266\274^\016\327\275\264S\224=\317\260\006=b\260A\274\373;n=WC\302=\003\261\201\275<\013J\275%\212^=\240\346\007=\264\304p\275\343b\237<\364s\201\275\177\014c=\237\341\231\274\027\275\177\275\271\255\231;\311\325\306\275\307\222\222\275\234\376j\274\315,\235\275T0\200\275\353\036b\275f+r<^\206\205\275p\3351=\226\310\210\275\022\032\313\275\205\355\350\275<\253.=$\313\343<\177xz\274\320\224L;w^t\275\346\345\225=\267\nM\274\210\311\341\274z[\254\274}\257\002\275X\345e\275vB\206\272Li|\275\024\340\257:*\275\201\275\371\250\251:x\240E\2757\321\204\274}\021\211=@\\\010=\202\350\005\275\331_+=\017\002\274:\342\024\300\272\326Vf\273\2716\346<\215\236\033\275%\217\321\273\241!\330\274\376\021Z\275\'\212\373<4\342q=\241\245`=^2y=\303Y\232\274\240\276\347<g\213\224\275\006\027\236=\220\323\260\275CK\317=V\035)\275\\\242\016\274\004\035\337<SR\241<l\204l\273\305[\235\273\260\224\313=\255\363c=)#\235<b\277==I\324\t\274\231\240\361<\201\307z\274\354\370\242\274_\364(=\266\376\315<\273)?<-\216\327;\241\033e=2G\257\273\232\007\211;\245H\225<AG\315\274g;\033\275\256\022\240\2758\335\340\274\0326K=\035\303\003\275\004g3=BgN\275\255X6;K/a<G\231\274=c&\024\2757\022\262=\217\344B<\327g\276\273\366\024\322\273\241Xk=\324O\226=^\355z<{\260\222=\027\370\211=)\203\341<\206\240\306\274\\\246\314<\272\013T\275\216cG\275\346\271\367\274\273\242\300=\201\037\211=t|z<r\306n=\256H\345<\374\201\\\274EVz\274G9\216\275\364\206\276\274\262=*\2745\271\274\275\355\001\271=\277\255}<\304\032\301=\007\371\033;9\337%<\034\342\200<\373\013\260=\271\307\001\276\006\001Y\275\265\250\203<\330IL\275]\n\001\275\265\254\276\274\202\303\301\274.G\177\274\215\331X\275\376\376\332\274\250\203\372<\310\033\007<\361\205\177=&Fj\275G\271j=_\310\223\275PjN\274\276\213\020\275\344\2756>\356\252\213>\245\332@>\212q\340<\240\034\320\273\310\210\200\275\334\210\n\275\340\273\334=\030UY\275c\236\232\275\362\017\203\276\345\n6=vC\226=E\365S\275\024\227N\275\357\303j<o\327\024\274\217&\315<\313j\265\275\004\253\305\274\305\321h=\033\371\203<\315\312\231<\322s\361;\021M\214=\034e\037\276\201\n\301;\315\207p\275\035\325\232\275\313\360\221=Fd\022\275\265\300\267\273\2061j\275\311S\227>$\240{<\361\226\r\276eh\355\275=\202s\275\374\356j>\243\265F=)\344J\275&\2238=$\2534\275\207\246\236\274m=\274\273\316\302\212=n\216Z\276\237\277Z\276x\345I\275\030\004\036<\245\342\023\274\366\363\026\275\266%\322\274\233\226\321;.[\262\274\243\n\023<w\250N;\255\037.=\252\252\301\275\374m\221<\253]\223\275\243\321\2409yk\356=\322\016z\273\331t\312\275q\242\220>.]\201=(\016#>\270i\\>x0=>dF\034\275.\222Q=(\212\017=\3310?==*\206\276>\031\336=\373g\037=|Gi=\325)\275=jkb\275\016-/:\253\226\277\275KfW=\205\222\306\275!\211L=o\033\214\275?\221h=\232\241\347=\316\365\207\275\323\177\330\272|T\023=J\247\313=\\\202C\274b\201\274=\233\252\316\275\277\363\372\275.\2455=\225\223\313<Mq+\273\211U\202\274\367\357}=\213\030\240\275\331*\364\275\344\302\177;\303se>\215\246\343=\275gI\275\267\221\222\275[\205D>B\264\307\274\224\262%\274\220\361}<\204\271\353=\014A\221\275\\\0134<\254c\303\274\242_k=0\322%\273-\356k=\005\337\215\275\n\275\037>g\3479=UC\027\275\263\305\241\275\256\272\254=a\344\275=D7\344\275\257=\314=\346\331m=&{\234\275\246\227\355=T\224i<Lg;\274\326\332\351;\'N>\275\274\370\361=!\214\037\275\033\347B\276t\203\n\276,kp\2749\222\331=\'s\212=\241\013j\275e%\372\274y\376\270\275\006\324\317\272\346\206\013=Y\322\007\275\241\335F<\331\256)\275\245+\014=\034n\014\276-\010\021\276\340Q\302;\250\233\036>\315z\231\275m*\001=\210\r\252=\331\375?=`\211\211\275A\310\036>H\207\256\274\322\254\222=\000*y\276\3136\264\273`\223\240\274p\376(\275\304=\344\275E\210g\275\025q\025\276\177a\245=\372\305\216\275\210\272j<\261u\325=\321w\231=S1\214\274\257\021\221\274\345\364K\276\215/\314\275W\256(=\007\"\217>d\005\273=\017\013[;\325#\322\275\037\327\357=)m\363\274y\227&\274\251\003E\273\214\230\375\275\323\245\211<\321\034\006\275\300\302\245\273\353\275&=\2645\246;\311\272\276<\240W}\276\204\305\034>\334\032\213<\r\364f=\r\341\177=\237\222D;\313+\352=\201\223/>\311\303C\275\375\341@\275\036\215?\275R\334\227;\254\206!>\201\207]=\324\240\263\275\222\206\312\275\203\232\010>\331\317\203=`\242\325\274\237:\343\275A]\203=U;T\274\373\n\204=08\000\273^3\010<\027Q\202\275b.\270:\246Ry\275\354$e\275\246/|=\213\r\\\2768{I\274\273\t\234\275\031W\357<\233y\351=%\336\377\274Q\306i\275p\020\227=D\025\251=e\013\344\273g\277\207\275\362L\033>v`\024;\\\360\226>\375\215\331=\354\352\262<\345\007C=Wt\026\275\246\000\022=2\026\255=U\303\262<\314\225?\276\017`\002\276\005m^\274!\r\374\274Ye\204<\017\026\200<\373\024]\275\267\337\322\274\030)}=\247\277\315\274\251z\221<\321\364L\274\346\323)\274\2206Y\275\024\263\264<\275].=n&/\273\272\264y\274\231V/\276s`\277\275\204\233\031>\244\001\275\275\261\ne>2\331\235=\351\r\227\274V\370\347<_\362u\274\025=u=\211S\223\275\210&&>P\032s\276K\234\340\274_\034\022>\320\224\351<\323\374\357=\017\300\010=\033\242\217\275\364\201\240\275Y\030\022\2762^\005\275(\035;\274\027@\032=\271\004\246\274\352sj\274m+\252\275\300)\357=,^\232=>B\370=\273\347\245\275\363\336\266\274\343X^=w\377U<\030#\361<\270Wi\275\0170e<\004\332\271\273\032\301\304\272\034\021\216=1x\351=_\002b\273\021\215u\274\330\036\317\274\177\267u\276L\340\004\274<\033\260=h\3116?\216!\267=z-+\275B\177\037\274Q0O\275\306^\273<\312\337\306\274\022<E\273\303\263\234<E\303+>\246\373\360\274\356\253B\276\313\244J\2763/:>\356\350F\276\037\020\364\275\243V\'=tv\217\272IQ\304<\300\nK=L\313?=\247\001;=X\355\177<\372\014\352\274\"\223\006>\252`)\275J\264\277\275\177\330\201\275\356\237T\275 e\035\273\236}]\275\215\332\207=\t\312\330\274\210>\017\275\364\0375\274\324(\243\275\177\315\355<D&\227\274\222\274R=\304\177\013\274-\323\017\276eIN\276:$K=t\026\007>\316Z\256\274\210{\032=]\271(=\rv\267\276\002\323n\272oc/=\237\233\231<H\334\266\275\222X\374=\001\235\307=\327\204\020=V\211G\275u\007\017\276w\332\304\275\026\312\020=E\020\213\275D\023!=`\\\233=\3065\245\275\331\334\020=\022&G\275\326\371\263<Ii\311\275!\004\207\274\336\r\327\272\230\314f>`\375\250=\270\030s=\206\303\201\276x\204\276<-\235\014=\250\225i=H\307Q<\363&\225\275J\030N\276\005\321i\275\263 ]\275\006}5=\"J\355<\3243$\274V\375j\275\253W\024;\273\035W<\362F\207=\214\341\221<\235S\006\275\322\177\215=\037v\025\275\343\007\222\275\026\\\254\273\236B\235\273S\343\273=\337u;\275\001\270\226\272E> \274D\201\022\274+\265\302\275\307\017\366;\235\256\236\274C\342\023=\350\220\357<[3\357\273\212LW\275(\230\227<\'8\250\273t\'\302;G, =3e)=\212\202\246<\307\213L;\346^\230<\241\256c=\025\324O=O\026\025\275\001/=<\177A\336\274\002.U\275(6\356\274\223`\235<b:E\267\355\225\330\275\227\356\323=\222\2612>%m\327<\013\354[<\"\247(\275\231\344\206\274\271\277\211=:=\235\272[\030\004\275\r(\021\275q\365\366\2749rp=?\346[=J\225\305\275B\352~=v6:=\204\260\344=\355Dw=~>$<\246\230\236\275\224\013\231\275\241\260\225\274\010:\253=\272\314\n=\246\303S=7\324\000=\306N\310\275`\242\037=\354\035\003=\241&\022=n$\221\274\177\"`<,F$=\241\301$=S\330/=\343\324n\274\010\031o\275N\263\316\273^\235\367=\307\2630=\021o\004\275\224>\374;\343\027\345\274SR\370\274\020\013S\275\240?a=F\305\317\273K#\302=!\036\221\275@\310\252=\364! \275\346\211i\2744G\300</\014x\275\234\'a=\313g,=o;\000=j\360\327=\225\"\275<$C\000<<\227w=`|<=\213p\010\276\033yO\2757\303\016=#.q\273_L\216<\251\360\362\274\335\357k\275\035cw\275\214|\277=\272\3555=\255s\306=C\t\'\275\323>X<f\240\203<CX\237\275\245\277a\275!\216l\275vA\310=Y\217]\275%M\250<\243\272\226\274\3636\203<\356\314\351<!\030-=\014\356\213=\307\2522\275\232\'\235\275\351~\010>*0g<\344`\314\275\310\362X<Y\226\203=\257Z\361\275=\001\234\275\210\325(<\225\343s\273\310E0\275\246\334\237\275\305U \275!\365\243=\005\374\322\274\217g\334\275\333\352\314<\304~\211\275\n\r\\<W\335\330<\200\335\336\275\027\254,>2\313\013\274\271\274=\274\272\021\0269\200u\302<V\344\326=\365\301\240=\334\2474=\253C\232\273W\241\216==\273L\273!\323\336=\375\006\343\274\310\024\234=\214c\351\275|\317\244\275\237\020o\274\345\037O=\005\224o=\n\234e\275\222\352D\275\t=\246\274\024U>=#}%=k\t\212<\377\364\353\275\2349\330<\340\246\321\274\t\246\000\275b\'\376\274\232\226\365\274\227]\345\274A\363\016<K\035\351\274\347\014\216<\225\027\344<\343\270\214<\277\230x\275$\036\304\275\267\275\032<<\272\026<C\014|\274~\301_\275\344Y\202\274\317f#=\3579\372\275$}\344\274\032\257\254=\021h?\275\200\035>=\350\263k\274\257\204\364<3\220\031\274\026\231s\272\020]\235=\230hK=\305\322\310=\335;*\270\020\345\224\273\377\001\255=\016\340\332\274\027I4\275%\222\"<cSi\274\225\004\"=J\";\275$\004\255=\337k\320\274\300\237g=\276\020U\275\3070>=\305$t=f\262\305=+8\372<\356\225\007;-U|\275\361\226\207=\303\203\210=\367\357N<\345\360\021<\364\344\334=q\261\032\275\325\274u<\000y\204\275\232\013\263\275\247LV=\232>\020\274/\305x<\351\226C\275\353rE=\265lO\275c\231\301\275\310\rL\275\0372{<\223\336Y\275\341\257\257=\276}\317\275\350\372\262\275\263\375\n=rx)<\355\334C\275\007\314\323\274\025_\200\274e\275\324<\365\327\003\276`Q)\275,-i\275cH\036\275\005\355\245<$T\347;\351\240\374\275dj\256\275\222\275:\274\272\267\312<\336\355:=Ru\025>6\342\370\273nk\376\274)\316\217\273\321\273\377\274d:\262\274\372\340Z=\275\260\313<\364\034\367\273\001wc=s\207\362\273\345\340\212<\\\334Y\275\360W\373\275>g1\274\230\023\274\275\257`\3469P\243:\273\231q\234=\201\237\302\273\226\326\222<\364\376\2469q\025\363<\270.\242\275p\373K\275\010\217\257=\363\255R=6\325\207\2758\261\357\274\3759\342<\340\326\341\275\226\304\377<\010\307\237\274\306\232\277\275,H\022\275\232k\020\274-\361\263<\030Y\002<\341\230\037=\001\252L;\271\001\2649[\363\207=2\217\305\273\255\035\216=\363\364;=\254\317\241<.)Y;\276\306\341=\251j\026>c\211D=\363\373\230=V}\303\275\037\242\221\275lj\270\275\324\371\263=~\362X=\013)\037\275\271\2108=\340\213G=-\367\234\275\222j\010\275\340\006\200\274\226\365\021<nq\206\275\006\237\234=>A\316=\341yO\274\034n\245=\354\272\016=\033\371_\275\211;\312\275%iy\274\252\221\247<\370$s=\n\013\037=Q\210\250=\263@\253\275h\261\004>\'\030\027\275fw/\275Uz\314<\237l\222=g%}=\224\207\375<J;R=\370t\031\275\312\256\317=\036\227\203=\317\177\025=\363\350\026\275\347N\215<\333U\263\273A\335;=\342\243\370<~\213\005\275\226Q\'\2756ad=\373=\"=\240\326o\275`q=\274!<\215=\361\266\330\275\t\350U\275l%\263<m\303\237<w\026\320<\351\341\201\271\022\032];k[7\276\264\361\326\274Cv\235=\353\343\214=#o\301<\370mi\274\003_\256=T@m=\016:9<\342P{=\004~\363\275\373]=\274\326\360\324\273pN\241\275\273!\341=\366\2519<\254s6\275K\362\260\275#\254?\275\033\036\337\275\345\261]=\263\'\002=\356V\346\273o\023\034=_\247\275\2742\375\003=H\020J<\014[\330\275\020\335e<\2539\231<\244*\236<X\255\213\275JB\224;H\030+\274\277+P=\014\342j\275\315\\E=eO`\275D\207\305\275dST=j\304\206\275Sk\372<8\311\250\274\326x\035=\272\203\313<\310\302\224\275-\202\204\275\304\364.<\356\210\313<\032\336\217\271/|?\275c\334\256\275\330a7=\301\236><-\364.\275\213q\266\275\214\001\222\275\233\355\274\273\025{\022=\334\247\310=+\301\312<\nD\246\275\260\237\254\273\006\226\214\275\274R5\274\341>\r\275\005\320C\275kZl\275C\364\271\275\344\351+=J\264\253<X\311x=\252\367n=\317\324\215=\271T\203=\022\325j=\257\240\370\273\022\007\324\274\267\222\332;\345\224\315\2752\016\302\275\230/U<\340\351)={\215\362\271\337n\235=\311Z\365;i\0049<\213b\353\274\200\003\247\275\200\261\n>\032\211Q\274!\325,;\245\320\010\274\251\033F\275\204[Y=B0\300<\023\037\206\2755L\351\273\t\320n=D\241\355\274\022Y\223<\021u\246<x\217\255\275\266\340\256<\023\352\254=\022\035\014;Q\241\207\274\214\235(\275\362v\300\275\246\361\200\275\353\324\372<\314\206\250<\341\264\024<\017\365\376<\373\253+=\265/\353\273\341p\003\2752\207\266\274\337T\013=^z\262\274a\262\030>\222\\P=.\226\247\274x\026\016>\321\3614\274\232\264\033\274\020\270\254\275c?\206\275\244J\206\275K\004\301=S\344\301=`m2\275\307\301\026\275\317!:\271(\211F\275\000\376|=]%\203=\022\325\275=\200-N\275=\'\030\275\227\254:=\365ea<Yn\305\275a\201f=\234\005\276\274T5\204\275\002\026\263\275\3348\266\275\370\'\271=h*\230=O3\221<W\035\356<d\220\002=m\370\303\274W\037\243\274\017\223\317\274\220s\363=q\324\352\273\177\211\312\275\343\2220\275\370u\036=l\332O;x\253\237=\027\263\337:\023\355\312\274Y\261 \274\272xw\2757\203\222=\317\267\342<\tga\274^{\373\274a\271\005>k\375\203\275\0331\010\274\234#\311\275\004\303\006\276\022\006\304\275\"h;\275\221\260\267<\244\003\332<\321^\264\275q\277\243\273\303\365\212=\016\324\201;\010\021*\2757\326\274=\240b\370\274FW\212\274^\223\305<\321\2072=F\270K=3-\343=\023\252?=O\027]=\267/\237=\300\t\303<hO\325=o\272\254<\\w\013\275\313\032K\275\325\365\247\275{h\234\275w\206j<z!\256=\236\256\224\272\217\343U\274tq\346=_\374\365\274\035W1\275\177\274E\275\220\221<=-th\275\007z\314=\212i\036=1\235\246<\357\t\030\2752\246\031\275\274\033\207\275[>\331;\004(\330<[\206\017=\202\233\361\275\364n\021\275Sq\027\275T\006n\274\033\246\207\275G$\177=\222Bb;\360U\375\2756\2026\275\260\002\177<+\'\032\274\030\0063\274\332\362\217\272\242h/\275\336l\'=\265l\357\273\023\364\037\2752@\204=7\026A\275\374\365\303\275\377\341\225\274\344\177\200=\0277\335\273=\275x\275\350\353\'\274\010#\313=W\376?<+6B<\030\312\030\275\355\306I<\021\200\275=S`\234\274ZL\236=3l\351\274\376\305\252=\363%\332=\235\n\277=\344\262\232=\2212u=a\251R\274\034m\250<\004\r\264\275t-\306\271i\307\321:VI}\275\227\036\332<\177\322~;;D\213\275\222\206\022=Wz\022\276\304\215D<Z\007\222=\205\337X\275\262)W\274\0109y\2756\263\255=b\027\304\273\016Q\'>\244[\235<\024\244o=\304\341\344\274\036\220\033;\017)[\275t\246\207=\tD\343<\377<A\275\301C\276=H\243P=9\343\233;\027\233\033=e=\214=A\312\277\275\312\016\327\274\257\342]<s\275\361\275\245\357\364=\313\242\262\273\303&\233\275\303T\010=\365\223\026\275p\3210\275\330u\306=\372\021l\275g\332\r\275+W\204=\307\302\303=\'\227\315\274\322\266J=\277X\263=#\340\r\276\353\267\267\275,\200\022\274\220&m=\210\265\n=\306\233\305\274\032\352T\275\002\277i\274\323\232\210\274\355`\231\275\262E\204=A\257t=\327O\2069i\234\241\275 J\204\275\n\034\211<\267I?>\231\347\020<|\215O=\2224i\274\006@\205\274{\320\235<\333X!\275\344\322i\275\267\322\315=\303\307\367\273\210.A\273\324\016\224\275\301Q\025>r\227\201<p\353\271\274\'\374\027=J6>\274=L\366\275\371`\362<P@\376\274\357U\307<\226c\215<m\323\251\275\"\321\262=\342s-<\270i\311\273\224\374o\273?\177\255\275\220\346\214\274\256\020\331\274\376+\247\275\246\267\217\275x\275\264=\337S\t\276Q$A=\320\037\252=\270h\026=\'i\313\275\227\301\363=\212\221M\274\301\214\010\276=\365\217\275\376,\022\274\3479\226=\220\317@\275J\334V=o\250\236<g&\304\274\n4:;\264M\021=\321\374\344;\334@h=\010\254\231<Z\303\'\275\'\027\355\274\272sj\274~\036\034\275H\277\362<0+\320=].\267\275\354\345\000<\351=\005=\232\204\034\2753\251_<\222\333\033=\016\236.\275\225\214Q\275\265j7>\004~\232\274\267\374\350\275\320\342A\275\375\213\346\275T\314\214\274\014\"\236=Y\267\247<\200\277\347=\217\264\207\275\252\031\274\275\222\267\214\275\022\371\243<\020I\274\275\345\3133\275*\023.=f*\316=\314?~=\245\237$\275\256\201\364\274\262^\240\275\022\261k\275\314\036\005\2749\035\030\276\032\330\350<Q>\033=\025p\227\275#\370V\274\356B\'>\3614%=%#\202=\303\025`\274\241\\y=\014\002\271\275t\311!\275\274\243!\275\261\225\265\273\35189=\364.\233=\205U\267\274\037G3\275\0013=\274a\036H=\0054\340\274\03549\275\353\226\235=7F\254=8\330\236<\250o\207\273,S\002=1\227\331\275\266\353\307=\'[\005=>\353-<\004\262\236\275\315\200\000=\030\210I\275\314\206\354<\327\334c<kL3=\245\314\306<s\243\373\275b\272\301<[\241o\275\006X\366\274\313\010\316\275(L0\2754*)\275 \243\251=V\221_\275\261\277\201<\\\202w;\367\177\327=\242\323\260<\374\323m=\301`\347\273B`\211;\3762\255\273\270\232\357=\337\252?<D7\304\275\200\222\330=\356\227t\2751\2129\275\361i\203\275!\245~\275=\254\037\274\253\"@\273\370\260\234<\327\315\024=\366\314\371\2758!\234\274\"\346\210;\216\215m\275\333\324\212<\350\212\013=u|L\274\215\213 ;b\216\017=p|\253;i;\204<e\207\326\275\r\362\007\275\260*\321\275\320\273!=\270\"\024\276\0234\202=\304q\215\2720<(<\260\014~=\226\313\261=\201\264\037<\360\304\202\275\262\236{;pq\244<k\3661\275\'\221\265<\371O\266\275qG\001\273\222z\273\274kS\257\273\370\204\230\273fL8>\205\334\202<\213\004\265\274;\322\232=\324\224\005=g\214\337=\277\0035=\212]\341\275\302\264\352\275\320\232\t\276\202>\235<\343\274\261<\247+h\275\016\322\222=\201\376\255\274oJ\222<\206\314\322\274\377\322h\275\212Z\257=!.\025\275{\217j\275\257\361\240=\202\370\200<\315\027\215<\0221\213<&j\327=Pq\211=\217\3618\275\261\004\367\272\2406\340<\207\177\355\272\277\251\026=|\'\211\275iO\314\274\207\2764\273\236a\246=\\\270\027=\303.\347\274\0100\360<\211\0240\274\211+\243\274H\007\257\275\332\316\005>N\303\244=\240\032><\370\370\213<\036A\372=w\325\212;wc\203\275g\266\334\275I\276d=\223\252\010\275D\027l=\2471B=\200K\245\2753\226\342=0\274\200\275f\324\321\275\255\321Y=v\312\022<\007\352\031\274\205\273\232=\220\327\275\275\024e\237\2749\312\373\274\235?\362\273H\244\332=@A\256\274\026\256\201=\342\327K\275\317t\360\275\246@f\2755\033\217\275l[j\275]-\304;\227.]<u\2342\274\263G\035\273/\216\212=\tt\316=\216\306\341\275\007\277\002\2767\257W\275y\025\233\274*\240\274\275\006]\014>\270\026\013=m\221E\275\260\315\325\2722\013\"=\213M\000\275\201\204\230=\325\264K\274!!E\275\021\213j\275\233DD=\034w\212\274c\232\255<\007\365\035=\357\023\356;\264%\372\275\245\312\235=\362\265\205=\033u.\275\315\254\332=\236\026\205\275\327\303!\274\304\307\316\274nvq\275\232_w=b\236\374;1\001d\274\373\036\n<\277\224F=x\2465\275xX\300:\\\030\303=.\266\366\274\231\222N\275}\305\301\275\302\331q\275\335\177\204\274\334q\303<$\304\336\274\203?Y=\026\265\013\274\317\262\342\275\305\335\025=q7\345<\377\242\021\275\367\241\264<:\243\241\275\r\010\037\275-\026\225\275\256\246\214<\346\256 \275=\263\237<\203L{=\250\332V\275\333\336\267;\024\270\233\274\325F9\274k5\347=\344\334\226\275\234(\214\275b\327@<\246 \321\273>\277&<\304\2573\273\336H\201=1a\027\275\271\250\322\275#O\230<\307XK<\251M\206=0\360\r\275U\355\227\274\200:\030=?\314\257<2h\262\274\013\032\326\275\037\360A\275\004;\251\274\253\315\002\275\351\n\246=\352\352i\274\204\364\212<]5\035\275\316K\276=\347\2035=D\023:=\346\267\341=\364\020I\274\2115\367\275\213s\213\273-\006f\275\300\242\224\275\310\340x=\376|\000=\362s\262\274m\326\017=O\366O<\242\216\326\275=s\215\274\022\317H\275\362\322\344<\347?\257\274\0371\202=\256<^\274\200\361\300<R\346\246\275[\344\361<\033\336\000\275\347&\271=r\177\177\273\314\371\256\272\204c\221=50\006<\345$\240<\026\336\356\273s\232\201\275\031\235\315<m~\206\275\246@0\275\336\316\325=\342\312\274\275>\304\t<\233\205\242\274\321\347{<\0209\222<<F\234<\316\237\243=LE\002\275\000\021=\275\355s\302\274\335\004\263\275D\327\024\275\354\026\2479\257{\272< \0071\275\224h\250\275;\032L=R\305\354\274\204\200\352\273\207qR\275\331q\032\275F5M;4\352\315\274nx\224<G\245\340<%Xu\275\2504\273=5\"\024\275\034K\231<\203\302\310=sF9\275\314\2020\275\321\025\271\274\354\032b<^-\261<\216\230\257=\334\257\327<\nb\005\276P\275\356<\347ww<\360\016n<\311/\027\275\367\341O=\221\320\204=\334\024\n\275\271\026\230;\334YM=g\203 >\035\321\361<w\0346=\222sX:\'\001p<M\200?\274z\265\265\274`h\t\275\025:\237\273\311;\235;3\206\300\274\243J\236\273],x\275\031+\202\274\202X\235<\254r\201=\300\341D\275\336<\373\274\341\212\206=\004Q_<\332j\250=z%\234<\312i\205=\205u5=\">\266\274\346-\324=_G\t<\2066\";\251\234\210\275\311\233w;\305\330%=\216I7=\343u~=w\374b= \303w\275\366\211\202<\"\364K\2756\234<<cs\301\275\262\021)\274\022\361\274<;sj<\333\372\374<\020k;\275w\337\304\274`n\303\274\2312N\275\314\244\'\274\256P==\344\206\336<N\351\037=\310\037\221\274O\302\271<\032\340\200<\021)-<\266-0\275\037\243\204=\017\330P\275[NP;\007\352<<W\016\311\2751\261\306=\177N\250\275\206\024h:(\241\231\274\3726\320<\235\371\263\275y{\201\274\000f6\275\300\212\014>\317\362\221\275DMA=\205\232\355\274\355\206:\274\346\314\253;\000\204\314=\246z\335\275\022[~\275\207-\303\275P\311\324\271\\\037b\274\016e\333\275\365V\320\275\305\"8=\323X0\275\345\007\252\275^\231w\275\'\036\265=l\034H=\331\010?=\326\221\223>\212M\207=\240\310\010=\240h\264=O\016\035\276T\240\027\275,]9;\313OR\275\230\354\347\275\334\255\226\271\370\1771=\3115J<\325\357\217\274?\372@\276%O\312\275w\037\"\274\300\234\261=\373*\211\275\304q\362\273Z\350\026\275P\241\350\274J\247\036>:q\036>\374v\233= \227\251\274\211Q\372\271\376\367\327<\036\375\253=\377%Z\275G\372\003=\0321\031\276\334\020\207\275\310K\244;\000\017#>\251\212}=\270\230\t\275+6\304<\240\320,\275<\212\206=\010rB>\353\255\222\275\006\2468\275\014\313\273\274\244\036*\276wy\n\276\225\227\216=\237\264\207;:P\035=SG\215\275\220(\370=\'@C\276\030\036\243<\001\374\254=\2112\336\275\rws\274\250\267\350\273\035\320\016<_\023d\275\242E\246=.j\234<\267-\267<Cv\347;\257\025\210\275\275a`=\231Q\014\275\235\203\363<o\003\311=\234\005\355<\013\335\'<\303\271\332=\325Hz=\007\315\263\274\354\354\264\274(f\253\275w4\3109\227\205\253<C\246\034\275+9\036<\351\200\373\274\024\024@\275\353\270 \275Wj\001=b\243\001>\361IO\273\017\346\375<\036\036\025=\341m5\276?\227\270\274\325\275\234=\234=s\274\022\010\022\275$\322\035=\005\027\204\274\'\200\037\276m\350\036\274\223\336u\274~1\211\274\277\277N>\277\034\033<\311\017\243=4\034H\275\030#\356\274\351\366b\276i]9\275\227FH=*\356U\275\356\376\234\275\313\325\033\275\016D\276=L\017.\274\332\225#\274h\372\367\275\311\277\003<\256\334\035\275\265@\224<\000\3270\275\221;\274\275\350*\205<l61=z\037\333\274m\260\177=\302&@\2756h\002\276\013\354\014\275?\355r\275\017\336e=\236Q\014>,,\231=\365\213\n\275\350bP=_\343X=\260\213\'\276\355|\315\275^\r?\275_O\031\275\023-\251<\277\307[<\340%\225\274\335\204\372=^\273\t>\256\300G=U\323\230<\342\2179>\252q\317:&\227\002=\2320\270=0~\t>1\315l\275Q\234\275\274_\342E\275}\241z=\310\322~<\371`>>\010\247\373\274\2771\334\275\224\n\377\275+\357\367\275dk^=\220}u>\253\350\236\275\265/C;\313\300n\275\372q\007=\332\334\210=\030\235/\274\373H\020\275\241\337\013\275z\236F<\031c>;X\325\306=.\357v=%\251\037\276\264\344M\274\013\360\213<c2\'\275M\220\250<z\210\375\275=\037\361\275C\024\3079\203\205L=#c\325\275\037\244\356\274a\267\360\275\326\266\306\275*3\032\275\2167\035>\237\010Z\276\373@\224\274K\214\241<\245\241u=\321\241\203\275\362\220\243<o\213\013\275\352\307\263<\244\033v\275\201\245\214<\254\273\207<\204M\013\275&\000\027=.\263<9\261/X\275\220\351\353;\026x\000={\177\330<\224o\245\274u\000\203\275\030\"\226<S&\210=\344\025\333=\364^5=w\300\207\273\317\024\225\274\214\2116\275\314D\014\276\010$\217=b\252S=\177\020\034=\322\0261:\224\332\377\274\321>\314=W\'\025=Ej0=\037?\002>\307,\216\274.pA=\210\322\223\274%\215\325\273\005\362\346<:\033\010\275\337\007\270\274\020EP=\365\246R=\n\0314\275\261\354\026\275\206\246\022>\204\\\224\275\364\372\242=\372\r\004=\2638=\273W\334\310=\311w\\=`\2518\276\367Y\024\276\202\2558\276-\365\256\2738R\227=\340\217>\275\232\233\214<\313\347\025<`\'\221\275q.\213=\240\005\010\274\325\016\010<\261\225\315\275\302_\"=Z\217\004=\202\350\240\275\370C\234<w \302=\355\207\332<U\261\254\273Iy\216\274\3127\006=W\353/<\307\271\226<\314`3=\032\314\347\275\241s\342\274#\275D<\230\261\240\274L\322];\031\346\242;\346%\031\275\202q\327\275<\376\200\274\245\243{\275\315\221}\275\027\032\241=-\216\211\275\214\216)\275\242\367\342<\347\'(=\004\005\317=\306l\265=\003\375\224\275(s\255\275\216\016>\275bNa\274\244\022\030>\222\220\000\275\005u\213\274\363\352[\274RH\274\271\025\027\304;]\343\200=T\013\341\275\367L\241=\277_\330=\334\363\367=8h\000\276\td\266=\374<\275=4\207\016\276\245\344!>8\236~=\321\245\t\275\200\261@=7\356h\276\235\352\004\276\024p_\275\355\232n\274\322\212\331;.9\226<\327h\237\274,\246^\275\326\256C\275\305\272\307\275o\301\322\274$|\373\273?\231\272\274[\373Y=f\342/\274\331\273\275\275J\324\305\274\237\222~\275\2151\315\274\245\256\025>1\316\225\274k\272:\275\272{\246\275\365\330\257=F\212+<\316\342\221\274\224D]>\tUT=x?\346\275\013r\033=xg0>+\tM\276k\030Q\274\372N\016=\322F\307\274\032\311\207=\242\242\204=bN\020==k\370\274\242+\317;*\010L<\317\363\000=9\336%=[\270|=+Q\234=\000\350};\367\375\330\274\367h\262=Y\335\225\275\373B\227\275\t\354o\275\035\332\275;d\036\226\2743\204b<\233D\305=\347\322\221\275u\335\363<\332\"&=f\253\344=\371n\213\275\000\261\001\276-\2274\274\366\201\020\275\255\345\035>\307}v\275ps\300\2744}*\275\245=\020\274\315\017\315\274\243\177\000>\212\030\223=\371E\005\275\325\215C=\340\353|\272\236\037m=4\016^=\366\375\220<7DH\274\022 \371\275h\345\026>e-C=n\0356=\355\"(\276U\335\277=\341\202`\275\023\364\326\273bf{\275\226\313U\275o\000\241\274\233N\243\2755\373Y\2759\333\020\276\367\272\361\2743\335\304<_\220\227:D\325e=\301{\211<\262z\020\275;:\250=\201$\316\275M\216?=\330K\200\275R\324|\275L\021B\275\270\320\243=\245\036\357\275\331\243\275=tj\350=\267\356z\275\005\364\t=iy\r\275\250dC<\027\177\212\275w&Y\272\360H\325\275\374#v\275\2208\010>\001\346\217=\226\246X<\210\200\202=\355\224\212\275\005\220\262<\213.\321\273\376r\177=DZ\320\273\343_:;\325\300D=sOn\275F\3358\274r5\026=\007\274\313\274\273\036\036\275>\310\311\275\242e\200\275~\346\337=\'>W\274y\013$<\305\2337\274W\233\255\274\'c\265\274\367\367U\275>_\250\275o\033\201=\302\337\211\275\204\007Y\2764\313\032\275\003$\372=#\373>\275O\306\001=\231\3508\274\3148l;\215\325\223\275\261XX\274\264Eo:\205f\264=\220\356~\275\270\264\327\274-\336\251\275\216l`=\364\251\347=\326\2234=\301T\207<\232\323\273\275\236\017\305<{t7\275<j\373<\245\302\313<cA\270<L`\252\275\177\331Y<_\003\375\274\001\364\273=\001\360\226=\3406\227\274\252\0366\276,\026\366\274\324y\r\276\361I-<\237K><<\023\303=\3712C\273\337\233V\275\"0(\275N\373\247=2N\035\275\023@S=\032\363\330\274\210P\276\275\277\325\200=\275\265\256:NT\260\275\317\021\304\275\247x\204=\341d\233\274s\0071\276\347\215\023>\374`\322\274\004>\027\275\002\\%\2752\031W<\204\010\246=y\365\002>f\3307\274\034\022\t\275\205p\200\274\217X\231<\233\327^=\342\273,\275\no\300\275L|L=yK\351<k\365\346;\202\037\223\274\035M\342\275\314\313\210\274\362\025[=\2308\344\275i\315\350<=\316 =\260)R\273\016k\266\274\255\275\307=\201W\215=\337\016\346\275\325\341\237\274\242\036r=F\202^\276>r\325\274H\030B<w\257\212<C\")\275\230\372\215>L]5>\354\224\021<;\356$\274\010\352\274\274R\232\005\275\237g\316\274l\316+=\265&\255=W\324\342\274\3547\032=\257\351\211\275<\271\374\275\274\320\201;`\343\221\273\345K\034=\023\347*\276\026\274%=\220\250V\275\237\201\316=8\211\252\274\250\261\274\274e\330,=\260\177\032\275\346ib;\363\316\347<L\035\237\275\026,\027;1\376\361\274\357xf=\332\260\004>\000\241\223\275\311\001\365\275\240\377\204=s\232\371\274\376\302\313\274\363y\363\273\204,\246=\013\257\276<\246c\005>\335\265\016\275\250qG<\277.\315;S\204\377:\222\260&>5\253\203=J!\316\275\321\240%\275\273\177\230\276,\311\261<U\276\366=>x\315\275\256\323F\275\340\226\360\274!hW=5R\010\276\323\270\204\275\243N_\273k8&<,4\177\274lA\243<\347\354\250\274t\377\204\276\251\272\000\275\365d\212\275GO\322\275\241\036\023=$\262\220\274#\363\301<\331\366\375\274\354_\256>\332\366\000\275\344\020\302\273\230 \345\274\r\245\255;\353\307|=\327\342\021>\353\000\344=\254o\256<\302\357\331\274\230\276\2639G\n\n<\323\334=<\365\362E\275\217p0\275u\201#\275\265\375\353\275\345\326\275\274\002\nl\2750\224\'\275\250<@\274\356\306\"\275\202\203\006=\342\366\006\275\237\331f\275?\334>\274o3|=\022\352a\274\361\222v=\202\270\232\275\251\252u\275\2508E\276\320\364\245<h\030\001\276\351E\267= Y\307<\233\3657=\337\263\334=\316NF\274\'\177\270<|\016\216\275\246>\240\276\330\256\234>B\244\000<\226r\230\275YrE=+\315\355\275\350\337\256\275\307\212\301<l\253\267<\332\260?\273\361\2352=\376\006G\275S\304\344=\304\007 >FN^\275\272\310\333\273\035\331\307\274\360\022\326\275\013\367\265\275\341$u=(cA\276\022*V\273\222\326.=\261\264e\274\300\2215\2757\273\006\275J|\013=L\232\305=!\004c<\231$n=\220R\273=w\353\311\274`\272\021\276\267\270\306\275k\256:>\317\323?=(\236\n=\231e\205=\2011\215=\327\257\037\276\326\233O\274\342\021\254\275S\243\333\275\177\302h=\234\253~=\032\325\374=\326\024\203<\322\276\024=\264\251\013\276\360\211\221\274\232I\355\275ns_>\260\032\010>\325`\016>\227Ga\274\n>\313\275\t\033r=D\311\357\272\346\032\377\275\227\027\220\275\362\236\324\273\034\241\304\275\0269]\275\216#\262\274@V)=\252\021\253<\241\204\244;\216\305\211\275\031d6=2\016c<\341\021@\275\2029\327\275JU\271=>k\254\275\206\341\003=xd\331\274\rF\335;\340\214\235=\007P\304\275\255m\256=\232Cb=G\245(\274\330B*=\216\337\253=\026\n}=v\245W\273\206\361!\275\032\324P=\302\0270>\225\235\352\276`\037\037\276\213\233\305\275\371#D=\222\032n\275\346\030\202=\240@\261\2751g.\275\374J\217<\311\341\027=&\353i=\260=m=\307\014.\275\2760\313\275\027\372B\276m\266\201\275\216\200\235=s\333\240\275x\326\232=\275\370J\274\026\017,\276\335K\320=m8\214=]\262\020:z\244\010=~u\033\276\014\240\230=\226 \034\274J\2166\275\026\340L:\021\234\235;O\361l\275\205\007i\275Ty\223<*\376t=\\\273*\274\221\215\360<\261\251\310\273\305m#\276\025^\373<`\372\225\274\006\037\344;2=\225=\362\034\203=\252\377\373=\373\276\033=.1|=\301%\262\274\270\311\245\276\275`\244=\377\214\307=e\246\223<\\!;=\034\205s=5\004\235<\373\366\310\275h\260\342\274W:N<i\002k\275\360tg\275\373\377\305:\3560*=\004\265\010\276\216\341\177=/\347\254\275[a\272=\262-\325=\377\0236\275Z!x\275\247j\235\275m\344\305>|d(=\006\221I=\036w\351<{\021\210\275Q\373\351=\361\326\031>$\326\360<w\r\213\274d\207\216\275,<\277=`\000\271<%\222\323<\230\241m\275\215\231\367\275I\rI\275\t\323\001\275\244^\"=\032\'\305\275\337\362u=:\036\270\274\317x><\234\025\014=\'4\370\274M\r\030=\\n\005\276\021\342~\275e\203\300\274\217\3252\275\206\371\010=V\342d<E\363\267\275\"\252\007<2\034\221\275\310{s<\207..\275?I\354=\360\326\034==?\025\275\251\037\276\273\330\232)\275\212h*\276\233d\362=\204\3037\275o\352\274\273\312\312\365;\037\013J=\006\235\004=\374\260*=\243\235D=\303\245\255\274wM\221\275\353\353)\275\376u\225=k`[\274\344\376y\274d\350`\2751\300X=\360wb\275\275`\246\275\2507\233=D\252\230\275\177\340\n<\320\331\350:\230\364\025=\010\377\002\275\331\264\362\274>\213\324=B\006\036\275\264\217\323<\266j\335\274\271\235`=\352\226\341\275\225\302V\275\2158\210<\321\311\217=\001\003L=[\305\234<\346?\273>\341g\r>!\014\007\275#\221\022\275u\344l\275\337\310\322;-\207\217=\311A\213=\351\255\360=\231@!\274\233\353=\275+\265\027\276\031\263\205\275RR&\276\203\036\271=\375\035\200=!\201\203=\326\354\234\274j\351\273\274u\371\204<\306\356\260<\234\207c\275J\377\033\275\204\253\030<\361\254\330\275\303\332\322=R2\025\276\354\323\234<K8\204=\322\320\210\275\300L\007;e\354\367=\216\216\366<4w\313\273\273\034u\274\211\307\246=.<\263\274\207\260&\275\031\254\205=\r\022P<\256\344\340<\235u\370;JLT=;\276\362=W\274\001>\325\214B=\013+\200<\313d\007\276\t\250v\275\216\304\343\275\275\301\004>\364X\364=\271\007\334\275C\247\267\275\257L/=W>\224=D\244\217<\213\370\014>\351\214 =\014\3209\275\264\317v\275\217\360\215\274\370b[=\326\350\313=\231]\267<\272\304o\274\206r\271\275\016\253\363<O\212\013>\217\221;\274`\004O=\037\374]\275\037\217\223\276\267\326\002\275\202Q*\275\310\014\025\274\371\200\262;\276\014\261\2754t\376<\255\2743\275\355yI\275\231\250\217=\356\315.\275yn\236:u\267\373<\354\303\316<\000\3162=\2374q<\0214\216\2741\226\313\274\374\261N\276z9\230\275aJ=\275\353<\204=\030J\016>\240\234\232<+\205\266\274\354.J=94\013=\251\264]>?C\202\276\212\0041=\367\032\337<0\t\302=o_\212\275\to\344\274\205j+=\222D\245\275\323\021\331<\247\\\360\274\000\220\266\275\316b,\274\24194=aZ\333=.\303\331\275a)\244\275\013\202\242\275:\356v<m\305\355<\006xf=&\250\000>\005f\355\275\374\n+>\207\374]=\363G\202\273\220\026i\274\275!\302\273\216f\234<#\372\255=b\307\370<f\246\254\275\272KR<\203>h=\035\036\007\275\265n\252<\270\036\271<\345D\225=\306g\363\275>\n\207\275\251\314\240=\367R\350\274ed\277<\323\271\013<w\3132\275\241\370\247<\2439\377=\217d\231;\333\311\315\274\251\315k=%\364}\275\225\314\264;\332\363\347\275\240\000\343<P\331\243<^\330\035\276N\3422\276\366\357m\275\200\375p\275\272HQ<\247M\005>LW\021\275\374\033\245<V\275\233\275q\2203\275\361\027\026>\225U\340\274\244\034\212=\013}x\275\024\2671\274P\247\324\275\201\226q=\235ix\275\007\332\271<\033)\300=\254$\025\275nMB=[Q\226<H\311];\026m\031\275\030WI<y\271^\276\326\260Q\275\275\355\371\274V=a<\324:D<\362.%=\210\344\346\272\004(d\274\332^\031\275\344\313R=p\247\270\275\353\005\244\274yNs<\231W\251\275\303\0204\275\026\254x<\231>\311=\200\352<>\317\226,\275\275\212\210\274:\353\225\275\223]\350\275\304&\244=\275\251\326\274\347\355\332\274Y|I=\321\204\"=\254\314\225=\232\246\205>\201y\006\276\\\207\020>\023\363\275\275\200K*\275-\203\334\276\305\323*>7n\311=\320\216\254\275:z\326<\330\023\262=\352\232\005\275_<`\275\255\360\204\276^\250\227\273\006\213\262\275\272\360:\276\342\221\2649g\360W\275\234\247@=/\310\334\274K\227(\275\263e\316<.\301\304<\227t!\2730n#\275?.\330<?\322\224=\307M\275<\350\362}=\241\0253\275\006\276\200=uI\377=\026\214A\275\263\010\016\275[}K\274i\035f>\344\315\266\274O\351\256\273A\034\210=\344\202\235=\325Qf\275\374\211L=\245\014\024=\376\247\000\2768\370\'\276$\\\004\275\231\177:=U\300\356=\"\007\221\274\253\367\277<\216\315\275;\325l\323;v\2442=U\277\201\275\347\033m\274\233\375\217\275\010\027L\273GT\027<\205\330\022>\002\202\024>+\rB\276\221\252\014>\320\346\264\275\350_\014\276\266x\017<\356\303\252<S\354\244:8\362\357\274\010\262\032=<k\373=x)q=\311\353\320<]DX=\033\314\362;5R\017=1|\202=\367\364\244\2735a:>\362\2325=\344d\354=\\0/\275W\257\t\275-\000N=X\315\001=\030\324\004=\322?\201\274\006r\217\274\177v\270=^\325\347\275\035\336\177<L\264\370<:\225o=\253\213\333<\336\373!\275\346Y\222\275\024w\324\274p\263\300=\002{\203<\375\306\014\273\210\323,<}d\033\273/,\020\276\324\200%\275p\375{\275\375\245H\275S;\'\276N=#=\262!\001=\002\211T\275(\001;=\272N\347<\230\235\222\274]\312w=w@E=\021QU\2754\350\242=\333\331\357=U\242\t=\230\276\242=\363\034\341=Q)\341\274\"/\235<\201J\031=\324\237e=\357\025\336\274\020\304\037\275e\\;\275\247z\025\275\321\217{;U\032\226<\352~\"\2751\220\025\274\301\214\254\273\247+\216<U\255\t=\245\220\364;\262~\014=\206\245\016=\003\261\323\275b\233\257<`\254>\275\214\274\330\275?\307\365;M\222\206<\3565\204\275\004X\000=k\357\214=#\354\273\274\325\252\036\274\356\341\327<\201r\236\275\221\301>\274\303D\271\275\304F\024=\005\322\301\275\'<J=z\271\214\275\244:G\275!\014\330=eHS\272\235*\355;\243\357\226;>Rq=\366\000\364\274\317\0070=\251\265m;\252\014\236<\001>\367<l\212\300\274\311Q^=\204T\257=WIi;\203W\261<_\036C\274n\345\317\275\342\352\256:E\317\222\274,\323?=\233B\255=\271\330\010\273rw\022\276\300\024\373<\343\377\371=\r\263\030=\374p\250;\376\252\231\274\257\366\316\275\3104\311\274\267\035\025\276w\330\346=\264\033\243=2\226\001\274\026\270\267\275\347\322\341\275\317\314E<\2079C\275P\300\000\274\016B7\274M<\007\2748\316\265<\315\252Z\273\032\373h\275\342&\271\274\257\323\354\2753\257\334;\307\025\304<\263\021=\275\030G\016>n\014\371\271\020#\247=\200\332\230\275U\007\244=\265\374\327<^\310\300\275\031\236\223\275\217\024z\275\352\206]=\227\371E\275\2008\177=3\212Y=\357%\230=OY\203\275\235\222\021\275\277V\216\274\026\350\356=\033n\020\276\273\202.=\330\036\014=\013\331&\275\352\275b<F\241\233\274\260\206\020\275i\320\232<\002!\017=\004\215\013=T\274\371\273\217<\356<aa\324<\020V\363\275\322\323q<\260\350)\275\326\2648\271\323\240C=M\346\215=\237\207\227<{\0176\275\212\021\025=j\007]\275\034\021\233<P\326E=Y\361a=I\345\221=\316\314?;\025\342\265:\364_\305\275\026\366(=\210O8\275\336\321d<\3308\207\271\206C_\275\";\254=\022Z\331=7\273\273=\250\236\001\275\226?\256<e\377\233<\344\334d\275Yq\356=b$\357:\354\252\206<\350\031\311\2745y\302\274\310N8\275M\362\247;G\365\235<u\375\303\274\036\232\225\274]\252{\275\220\337\264\275\016L\365<\364\307B=\330\261\277\273\350\343i\275\033?\'\275\326\255\260<\241f\004\275\272\230\204\274\272P\037\276`\200\302\274[\301_\274\033\334\n>4\211\276\275\342<s;\207\257\306\275\2334\006=\214\354\256\275\2626M=H97;~\'\002<,\035\275\2755l\033<Y\300\221\273\366\356\372\275 \021\233<\244i\237<z\255\364<>\376(=li\027\275A\306\022=\265\367\030\275\312p\022=\236cm\274f\202\227\275\352X\267\273$\031\035\276$s\211=\264~\217<\231\330o\273\311\265\037\276swn\275P\376\035=\013\332\217;\215\005\013=X\360&=\247\361u\273T\261\255\274<\305\225\274\013\004t<f\023\014<\235\337\277\274\240\301\350:D\231\202=\013\030\326:_W>\275Tx(\275Vi\210\275\034D\257\275Q\t\346<g\223\257< \270/=\327\205%\274\345i\327\275/\010\022=|\304\331\274\333XR>\241\022\266=S\320\215=W\226\307\275\026\321\232=\237\343\251=\227J\207=c\212T<\034\013\36293\3559=\354\231!\276vF\2629\253\360e=\206]\304<C\020\010\276\255\341\206=\357\276\014\276\232(\\\275\366js=\256\004\247==!\225=\'53\2745\3071<\304\317\024=\200T\366<u]\220\274b\355x<\3612\010=\253\370\242\275\312\007\360\274\366\247|=\004=S\274\333\333;\275\305\262\251\274\276\257\237=\r\330\305<r~\n\273\320\260\220=\213[\000=\352\223b=\2230\262\274\017\316\244=\341n\013>\203;\312=\340\323\307=\275\356[\275m\304\307==na\275P\rq<\210\n\013>nJ\003\275\003@2\274\261\301#=\303TN\275\375\305\264<\366\325\344\275\336+\214=\346\241\204=@R\013>\207H\016\275\035n\265=L\203 \275;\221\215<\333\033\033\276\205D\201\275\223\344t=}\341\014\275wx\230\274)\316\252<\026\252\022\276\232\307\026\2755\3078=\\\350\"=\004\n\3259\364\232\202<\243\363`\2743\024\353=U\355\":\244#\245<\255u`\273Z7\335\274C\352\222=\007]\310<<&\240\275\226\341B\275PJi=\304\327p\274\256C\272\275\002\377\221\274\223\251\001=\000^\013\276.\371\037\274\027\365\021\274\265\230\032;\303\336\t=\377&\342=\227\210\212\274\262\023\000\274\341\301^\275I0Q\276@\201Q=\243d6<\255\362\217=\017\347V\274~a\352\275Y\200\241\275\372\310\t\273O?\216\275\254\353|=\254\342v\274\230\360\005<\235\313\265\275\340\366\207=\324H\017<\017\273\227=\373\014\237=E\035\203=\256\304\204=\t\265\312:9\342\367=N\246\241\275\254\301\205\275^\240\260\275HN\316<\347$\302=\222>\336\275\261\220\266\274\340}*\275\235\324<\273]\245a\275\251\357\273=hH\216=\301\r\330\275\217\232\005\272\260}\226\275\270\177\254\275\021#-\275F\020\305\274\350\241\274\274:\266J=V\007p<\231\346\004\275\211E\254\274\301\320\007>\014w\204<]NQ\275\350\254\307\274Lk[\275 \305\276<m\213\324=\342*\253\275\310\005\347<\001\261\251\275\375l\365<\346`\226\275\0246\273\274\2175\207<\002\315<=\343\222\224\273\021\212#\274\031eN\274\202\267\217\275ds\373\274\200\'\"=B\312]=q\212\274=j/\007\274\365\215i=\314\263\005=\200\270p=NP\326=4\347\177=L@\222=\270\3228\275\031\033\200=\345\302T\274\337\242\263\274go\005\276\341\205\343\274\255^\344;L\227\235=\000!E=1]s\274\274\027\277\274\310s\330<\022\005\363=\021\232\242\274\254\326\316\2744cP\275\204\000Z\275\3430Q\275\233\254u=\347~\313\273\215\327\341=#\242E\275E\364\n>\351hx<#(\250=\353j\265\275\375\212\246=\001m\337\270\305\200\003\274X\0303\274\255,\002\275\014\333\226\275\021\212!\275\361\010\007=bz\262=\372\261/\274^\331\025=\027k\345<\214_\334\274?\013\245<\310\327\251=\351Y\250\275\365$\343\274O\206\014=\344\365Z\274R\016\210\275\272vt=\220\003\237\275\016\375\007\275\265\227\272=>\274{=N\322\003=7\337\330\274\"\264V<\305\240\320\274\255\364\341\275T\313\205\275+\023\231=\371\204\231\274\247\004\252\273\251\314\343<\244\010==\2345n<\261\341h<\006\324\354\274!\357\037=\302ZW=\320\030\270=\303g\036\271\261\341\002\276\277U-\275\244\233\254=l\254=<*\350\321\273\367\250\035=q\367m\275\274D\347\275\205\356N=L9\373\275\315\245\314<\270\252\304\275\001\001\222<]G7=\302\242\201\275\266\364\321\274\352\021\226<\022$<>\206n\371\272\242\312)=0\321\243=\035\227X=\'\322\232\275\230\224\217=\351\332\272\273%\016\300;\303\316l\275\345\267\230<\201\255-\275\214\353\022\274Do\206=\227\276\004\274N\263\236=\335\272P\275\313\004\010\276\271\006/</d\244<9\276Q\275\273\320(\273\222%\226=\250\027-\276&fd\274*\001\261\274\222\002n=y\"\236<-\326\016=!\371\250=\n\213Z\275b/\272\274\031)\242=\355\266\330<T\224\026\274\236\221\357=\373*\372<\312J\371\275\354\255\365=\230\177\204<\005\020\007\276P\300\021\275W\201\332\274\022\273E=\352\241q\275\263;\207=\271\272\312=\252\224\222=S\022\345<t\037\354\2756r\177\275N\317\307<\262\021\035=0F4\274\344\260\253\275\364V\231\273\325\\\306\275\032\014\321\275\253*\271=\"\263\264\274\312pR\275\331\243\365\273\005\244\010>\240\026\366<\202\356\027=5J\3766ar\\=D_\017>u?\230<}\376q\275\215\2433<6\033\r\276\356\312\222<\314\223\356\273F3*\275\277\'\271\274\221pY=\233\003\303=\227{|=\344\205\352\273\317\370\364\274%-S==\037\340\274;\227\364;\331\341\301=\251\026\255\274\022\212\033=\257\273[\274n\034\220\274\202O\331<fZ%=1\'\340<\327\300\267=D\006\210\267F\030\226=\312\204\032\275\206i\310\273\224\003Y=\320o\353<\274\026}\275\320E\314\273\317\226x\275tZe=\250\376f=\264!\037=0V\226\275\364H\211=P\265\322\274-\3017=\306\003\204=\214\001\233=\212\221\211\275\343\345\001>e\013\213\274\013\356\273\275\316\216\036<\003\322\201\275_OU\27569\237<K\217{\275\240\270%\276\307n\260\274\002D*=\350!\223\275;\373\021\275\233)h=i\262\242=\223\006t\275\243\264c=3N\355\275t\216(\275\303Yw\275)\266f;D\t\t\275\231\226\341<;\366\267<hi\222=\300F@=m\010\220=\227\265\310=u|j\275G\254j\275\375\355Q=N\027\200\275T_\205\274\2201\321;0J\016=l\373\263<\247\232\234=\033\343\315<\316\321\003>W\014[<\335\330@\275\227j\0078\005f\033\275\3459w=I\265g=:\313Z9\027\204\203\275\017}\030>\350(|<F\327\217\275\345Fh=\003\314\352\274qy\000=\367\352\320\274\007\350#=\342\361\241<4\360\350<\220\276V<\311vD=\337c\037\275\342\307!\275\010\325\025\275\315\222\360<\270<p<\332$\306\275\366\031\313<^\363B\275\222\370\250=\212\2676\274Ya,\275\350\357\274<qG\276\275\223\210\'\276\257\250\252=:\370\203;\206bm\274q\226\201=\370\347a\2755k\023\275\357c\355\275\340d\035\275t_\313=\211\231\353\274\'\316A=\335/\246=Q\021m\275c\206B=\336\247\325\274\323\373\370\274\365h\347<\231\342U\275\230x[\274\372za\274\340\231k=XW\213\274\3771\204<g\340\023<F\\*\275\000M\021=d\325F\275F\310\263\274\377,\014\274E\231d\275+)\'=\361\304\203=\177\272Z\274\204\363\226\275\346\024\226\275M\252\210<\342\014\n\275\334\370\221\2756i\026\274\033N\365\274\\\250\314\275\213\302\316<z)\342<h\250\037<\355~\214\274Wm\206=u\3540\275.\234\263\274~\031\213<[I\306=\037^\030<.\2251=7-\347=\310O\341;k%:=\t\342\343\275\305\027\221=\317\006c=\333\247\016\275\206V\365\273n(\021\275\275P\326:\215\323\235\275p^\233\275\241\203\255<\200!\201\275\023\025\301\274\256\255\260\274\031\2075=\242#\314\2752;\276\275+\217\033<JB\343\274\375s\300=\321\253\213=\331\210!<Y\234\363\274s\014\267\274\254\025\025=\323\235\260=\313\200\273<\277\215\367\275\004fh=\211\017\255\274$\3676=8J.\274\365A\302\273\tQE=\323H-=\241(\301<\345\352\035=\r\374\200\275\312\200\272\274\266\364\304\275\263.\264\275\200{\030\275>\313\237=\274S\202\2744\334\006=\220k\243\275\214\320\241\275\024\021.\274\346\243\237\273\026])<4Q\270<GI\034\275\357e9\275\233\035w\273:\2364=\306c\257\275\262\317(\276\352y\t=9\025\236\274;T\356<)\344C=\302\337\252\275\371Ne\275u(\266\274$\214\355:\r\016D\275\264\322\216\273\241\214n\275\246\215\333\273\240yG<\307\221\315=\276\321\305\272\267\340\204=\267H\216=;\021:\275\'\016\313\274\013\350\365\275\257\016*\275\357\021O=\241\\~;>\262\262=\312<l=+\014k=W\0344<g\005\226\275Z=\221\272\272\230\000\2730Yd\275\255\220\220=\321\211\'\274\020f\221\275\007\336\024\275\345\341{\275\316\276\306\273\325=\3259t\304$\275\356\021\002<D\345\304\275h\344\032\275D\371\r\276:H\221<\010o\264\275\204\\)\275\223Y~;\226\350=\275\322\036\":3\347c\275\371W\271;V\\\260\274\204z\351\274F\025=\274H\231<\275\266\233\340\274\014\036\216\272\305o^;\300\274\253\275n\031C=\033\217\236=\315\251t\275\010\373\342<\016\311\373\274\205\201\215\275\216 \260\273\266V\375\275\322\302\204\275uy\344<\376\323\333\273\000zd\2758\267\371;\200\003t<\242\326\214=\352<\004<;\315u\275\310\242H\275\366\027\301\273\322\243\203\275\261\007G<\360(\035=K^\374<\252]6\275bP\265\274\351\327.\273\256N\346\273\017`\316\274q\027\210<\266\267u=\252\222-=\370\322\262\2746Q\013\275\014\372\203=\344\361f<\337\231\326\274&\2703\275w\275\343\273\361\001B=\025\364\035\274\212\210\022\274\324\327:=\334\320D=\317\270!;\343\360\357\274{<\224\2755\364`\275\346N\370\275Z\274\313\275eN\375\275\037\365)>\212\333\231\274c\261H=\275>\254=U\305\351<\321\313x\274\367T]\275K$\200<\313u\216\274\370$\312\272\363\254\330<>\014\005=\002\313\265<\262.\035\274\223\205(\275-\220\265= \266\346\274N,\231=\226\345\237\274(J-<\317\276\203\275\246\332\302<<\333S<\025B\236\275\207\017\234<\313\\C=\304d\017=^\202v=\234\225;=\255\353\262\274\307\365\276\274|\345\014\274\205P\027=\204\2207=\n\3103\275\037\315\206=\023:P=K\377B\274\010\367E\275\340\332\330=\337u\003=\023\253\364<\014\002s<\205u\314\274E\272\334=1h\243\275J\254\214=\016]\037;\002\231\214\274\330\\\276=\243~I<\265\355\256\274\3257\260<*/4\274<X?=\314S\367;\265\243\227<\265\014\013=\204\274.<\240]+=.\256\014=\r=\010\275\355\372\334\275d\274p\275\257P\262=v\273\024\275V\2739=\354<m=bXb=)\210\252\274\r\'\034=a\340\001\275\312\366\301=b\320\035\275g\350\275<\335\260\340<\333\222\252\267\354\035\200=\031<\351\273\360\263\023;Y\3423\272i\274B=\006\352\311\274e\235P\275X\365\314;\265p|\274\365\304\272:\300L\243<\372\247_\273\177\330\004\274eC\234<\263/\214\274\234\022\275<\010\220\240\273?]:=\3432\r==n{\275cw\340<\'V\262\275\301\351\025=\177dA\275|\202J=\351\206y\275\027 \222\275vQS=\311\'f=M\321\372\274\263M\272\274\247!\315\274\365G\236\275L\020z\275\252\351\\=\267\354\036=-b\365\275V\024\254\274\250\305C=\247t\244=u\027k\275\004\221\"\275\354\252\206;{\367\206\275\350r\214=L\2647\275\347\355m\275\005\373\364\274\240\317\225=\217\365\367<\322\270\315\273\2142\034>O\221\361<JD\036>C\326\262\274\336\345\256<\016F\000>i\315\200=\325at=\346]\227\275\335\355\334<^\357\327<\324\213\004\275\334\351\215\275[\3378\2750\332*\2754!\217\2754\323\243<\016\353\216=\364@\225\275)qZ;\351_E=}\250\005\271=/0=Fmg=\3720D=\215G\300;\333\004\021=!\345\262\274?\005\236<\010\014\242\274\251\245\221=\262\272u=\313\263\031\275\026\330\210\274uZ\r=\310\335\350;H\276\025\275\346\244\236\275A\333z\275\211\003\276<\353~\347\271\246\251\250<\027\353\320\274\002\234D\273!b\352\275\320\3536\275\230\253\021\2754\356\277<\370\332\374<\227$\252<S\245\022\275\303\2670\275\364\266\203=R\375\217\274\036L\321\271\217\246K<\320\350\201\274\336\274\000=\305\302\252\275\3652\251\275\242\221M=\200\325\352=\207\243\207\274\266\325\352\274xg\027=r\275\'\275\366 \265\274\333\257\200\274\270\352\230;U\303-\274\207\337L=\332\006\322\274\202\360\241=\022\265\352;\236\020\224\275\313&\333;nPi\275\205\365\372\2749c|<\3348\005\273\355de\274h\004\331;\257r\346<\3645\374\275O\020\327=;\363J\275\322Xn<&\207\377\274\2560\334<\021*\214<\235~c\275\335W\304\274\'>\331\274q\366\215=\025\t\230\2757o\334<\356\310\005=7\202\022=L+A=H\351\345<g\265\225=N&.<\273\2601<[\253\343=\230XT\275^\347r=~\376\274<\004\216\254\273J\252\213<`\324\205;\360;\242<\255\254\230\274\307\210\363\274\306[8=\224\354Y=\261P\350<\211?;\274\303v\302<&\312\n\275\361\035N\275\224O\246\275m\2320\275\256\222\326\275\361\333I=0t\274<\371\253\365\273k4\344\275u\267<=J\372\326\272\306q\020<\246t\207=a\264\322;5\225\256\272:[\364<\220YV;\326{\233=\372\345\342;;Cq;\237\231}<\037(n\274]\314\221<\004\021}\275\274\266\314\275)\026\036\275Fi;=\177\337\203\276>\330\333;\177\301\177\274QJs=w\3218\272\023e\266\275J\323\027>\250\032\253\275\3145\202<S6\352=\330e\240\275H\003.=D\234.=\304\3254=\314\270\017=\261Z\345;\255\354\275=WV\307<\347\004+\273\017_\344<\205B`\274\210\t\240<\335:\241\275\253H;=\317ZZ\276g\021\306\275\315\212\200\273\210}\334\274i\006\275=d\013/\2750h:=\037\324\211=\030\005\027>\316\355I=b]l\275I5\312;\035d\034=\304\267\014>\353\376\356=\376\361\373<\235UR=]\302o\2758\265\257\274qr\013=0\263\017\275\t\023\353;?\350\305<\211f\201<\254\210W\275\310\276a\275\324g\375\275u\317Q\274f\037\017=\003\204+\274\274\222\262<\206kT\275\020i\034\2749\355\202\275\200g\262<D\202\305<\027\253(=t\341\324\274\350\336\346=\005\235O\276\263y\334<\376p\255\275\353\360@<\036S^\275u\335\364\275V&\026>\205\221\357\273Y:\205\275t\202\033\275\374\276\255\275\235@\030>o^\232\274\242\274\214=\204\375\244=\021\014E=\306\252\306=\315\227\225=kv\341<\\\n\337;1S\277=\224\271\344\274\036Y\355=\275V{<\325\021{\2751\2325\275c\323\r<\367\221\324\274\304a\302\275\245\022\220\274\350nv\276\345\\\207<WF\r\274_\303o\275\250\322Z<H\364E<\220\026\000\275\351\034\351<\1777\231\274&I.=\253}.=\377SA\275\024q@\276\021\364(\274?&\004>Q\357\020\275)\342\200=*D\203=\207\361\210<3=\023\275\251\013\006\276]\334\177\275M\321\301\275L\215\244\274\304\272\205<?\222!><bJ\275\240G;\275v\306\257\275\'\352\367=\207Qr\276\323\tU><?0=\360\254&=S\032\323=\035\254+\275\236\323\275<~\316b\275R~$\276\213z.;\350\305\265<\206D\223\273D\037\016=\324I\217\275\353E\257=T\364k\275\'3\335<L\326\250<M\265{=\256Y\004=\225\275\206\274\212\3070\274\271\037\035=\ns\360=\354\251H\275\006\317\222\275\206\013\022\273s1\343=i\216\330\275\n4\274\275\251\324o=k\000\030\275\242>\231=q\330\031>\273\335\341;\230\037\340<\232T\t\276\2642+\275w\251\036=\223\275)<\307\224\205\275\376\371c\274\2323\251\274\004\223}\273t\351\177=\316q\245=\237U\376\274\013;3\274=QU=\202&\224\272\006\327\270\273}H*\275\032\035,\273U;\202\2750lG=\235}\t>\352j\200\276{\022\364<\035},\275c\324\000\276ry\347:\242\330b<\325\243\316<\220\037\303=\375\217\266\275\216\314\210=\324\217y<\252\325\200=\025\265\216=GxU=\2054&\275B\026\301<6.\274\274<\347\313<B\234\335\274\274\322\000=\273\003\332\274\234\327\t>\350\341\024=\224EY\275\377\354\263=\322X==5\217\203=\017\001X\274\025\274\256\274p\rl\275>J\264\276\240J\254>\265%\206\270\025\262g\275&zv<\343\031\243\275\337\270v\274\226`\252\274\004\344U\274\215\032\306\274\375\036\220\272\207\361\250<I\323\211\273\257\330r\275\207\277\227\274\003x\n>3$D\275l\333\327=\351\203\315\274\315\352\252;>\377y=\377\351\211\274\2469~=\215F\356\275S\251\277\274\310\335\231\275\\\307\360\274\251U\'=\022\237\244\274\335\031\035\276\014\241\204\275:\311\245\2732-\031;\304nK\275\346\027\227\275\227\224K\274b[\000\276-3\202\275o+\267\275%\372\205=\364\377\025=Y\361\234=$\332\370\275\261B<\276uS\254<\260a3<u]\237\275\031\366$\275c\377z<t\001k\275\\\202\217=\362\343\313\275\341\'\001=y\215J\274-\301\231\273\227\274f<\236\363\016>\033\013\337\274\347\023T<\366\006\362\274\206\245\315<Z\032\364=\350$\317\274u0\230=\216\216\263=\216\311\000\276D\347\030>\231\237\300\274\n\225\341<<:4\275a9n=\022\266\022\275^\360\010=\000!Q=\277\232\211\275\000+\016=\032\313)\275\013uj\275\346D_=\260|\r=Gu\207\274\353\033\023<\376\330v\274\251\256K\273:\233\226\274\314\217\025\274\325\177\\<c#-=CT\021\274\'\342\223<\314\331\353\273\257P>\275\010Z\224\275\341\316\016\274\030\203\250<\270\rX;\006\327\270=\302\224\203\274K\034\231\275\341\010R\274\222\356\324\274\230\366\265\276\247\213\243\275.i\374\275\316\372o<\330Z\322\274nR\000\275\324\371\254\274NBI=u\200\034\276\251\273o=\310\017\"=\343@[=\211\257\234<\375\177\254=\274\025\022\276V\'\260\275\343L\010=\373\243\024=\273\207\241\274,\330\206\275\325z$\275hK\222=\037\345\304=\341@\333=\312\321\327<:\325\n\275\211\037\245=\244J\264\275\026\331\306=\245\335\310\2721\363r=\305\322\233\275\254\005M=\252\273\217\275\223v\314\275\342\021\214<F$\231=\217\031\203\275_e\005=\033\035\245;a\305\210\275dh\260\274\220\021|=\013`\207\275S\314\240\275\253\235&\274\224\224\227\273\007w\372\274m\013=<4)\256=\n\331&\27584\020\276+\367\023>\033\034B>\207\345\263=K\237V\275\354\303\335\274.w\243\275\3668\314\274[a\211=f\014\241=e\367:=\005\036\272<G1\241;T\355y=\347\343\342\274\335\342\206=\323\374\231\275y4\036\2769\336\343=\325\3735\276\362r\007=\021\260\320=3\347b<\321\020\227\275\033\r;\274\226\000C\274\256\'\241<\202\220]\275\244\244\317=5\215\004=\212\241\313\272&5\220<\267\t\374=>\274\345\274A\003\300\275Gp\324<\374\356\250=\341\255%<`#\374=\004\000\300=X\000\261\275\371\265\206;f\265*\274`\036|\274\021\324\332<\221\\:\275\301!~=\311F\201\275?\300?>\326\234\241\275=3\034=\262\007U\275\373\'\233<\236\234r\275\330\300M=\031}A\275\325\323\337<U\177\321<(\375\342<\220\342\201=\3403\r=\3240\221=J\274|\275\367B\224=\367I\332\273\341WK=\232H\271;\037\375\301<\350\225O=\366\337\014=`j\365=\311n\240=\021O9=\034\t\277=\372\223+\276\354\035\267=y\024|\276\233\314;\276\211<G<%5\001\274\230w]=&\206\313\274\325\321\264;\312/\221=\3445\n>^B\025>\260\0040<\261\010 =\351\n\243<\254i\200\275\032\305\267\275\030\013\262=\361R\352\275m|\3438aR\005\274\246\221m=\356]\272<\340aK>1\234f<s\235\030\275\033f\010>j\304\213=\324DX>9\n\013>\332]\334\275t\320\351\275x\237q<\313\345\t=$iW\273>\313X=\013\224D\274goD\275\030\312M\276\321\216\375\275.\354,>\341\203/\275\343t4\276\327\273&\275\002\364\207\275\212\211\340\275\237\025\217\275\277\325\266\275Z\356P\275|H\r\275\300|,<\016$\316;\007\214h\275\326\031\201=I\301\301<-\373\370\274T\337\361\273\340M\351;|C:>F\230\244\275o\207\023\274z@\000\274_V*=>R\026\275\347\363d\2754Zp\274\212\372\212<\343u\377\273\311\027\275\275\201q*\274\2618\027>v\214O=\"\203\212>\246}\353\274\317\2372\275\210q\001\277h*\307\275\331Z\355=\333i\373<:\315\335\275\316\337\336\274\251r\331\274\317\t\230\275\356\362\240\275\016\016X\275\207\364\243=P?\357=\352\364\221<\327\241\343<stM<\306\016\226= [!\276/\310\336\275Y\267<\274+\026J=\316\312\254=\310\\\246\274E\" \276\\\327\335\274\233;\274=}\252\217\275\241@\304\274\354<9=(\216\204=\354\334\367\275\243\263\033\274r\254\376\274\032+S\275L\004\242<\364\222I=\356\216.<H\000\273\275\271H\244\275\2747*=\031\274Z=u\002\231<\373\037\260<\365\244\327\274\264\001\200\275\017D\036=\264d\310\274RM\227\274\366]\r>\2175D=\247|?9P%(=\300xA=\246\362\366\276\264\013\201\275;\206\304<7\220g\275F\020\023>\377\262\327\275\315\276\206<e\020P\274\034\037\215=3\361\032\273\261\026\014=\271w\351<\200\315\353\275\321\274@\275\205\243\260=\027`\003\275;\214\317=\003\343\242\274\007pY<D\343\304\275\215\242\204=\272$~=\r\303\236<\3432<\275\215\207\317\273\203\254\370=\310i-=\241\341j=\375\302\364<\375\030\361\275\255\230\263\275\316\t\240<\374h\324=\260\214H<\234\300\260=f.Q=\327E\344;S3\003=\235\300G\275I,\307\271\024\234\030=\314u\035=?\331a=\250j\345;\016:.<\207\320\310\273]<D=\377\354(\275\233\300\341\274\030\316\000=\275\016$\275\205\350\360\2746G\342;N\374\225<\303\3548\275\266n\t=\347\017i=\232\006C\275\326&D\275.a\005=ab\214\274\301Q\215<\006G\323<\002\366\"=,!m\275(\312\212=\2771B=\343\331+\275\257\225\255\275\305]\253<\364\371\3509\266\\l=\006\001\275\273@d\222=\236\305\035=E5f\274d\t\327=t\246\310\27274\021=\016N\000=f\272|\274w\333\364<d\275<<\266 \024=\\\340\366<+\304\000\275\334\300u\275\256}\321<j\304\215\274\'\255\247\275\222\"\232\275\255)\306<\031\311J\273h\023\266\274I\031\206=Q\206W\275\341jN\275\236w\371\275\207X\226<]\3239\275\225O\270<\025N\242:(r\025=\270$\244\274=\323Y\274\305\266/\274\245\3341\275\216\265\024\274\244\177B=9\377[<e$\017=\353rH\275\315\2371\273\202_1\275\260<\300\273&CH=\354,;=?8\036\275rI\210;\256\ra<?M\211;\016\361\326\274n\207\226\275\247\357\331\273\321\260\317<\306\277}\2745\030\276\275;\365\354<\'&^;\035\'\347\275`\035\371\275\177;\016\274\353\002\207\275}\252\356\274ia\247=`O\005\275E)\241\274\004\003\201<U\'\327\275\037\214\005=.Vz<\343\023W=U\314s;\316\212\000=\216\030]=\360!\267;\351&:=`\306m=\226\3325<\343\363\217\275\031u\004>\342\n\006\275\251\367\253\2743\306\221\274\257\355s;G\024\257;\326\236\214=\270\374\264;\247\226\255\273\226\353\242<\336On=D2\322;\273\344m\274C\303\037;\266\255\316\275+(x=!\022\233=\251C\233\274\332x^\275Z}\207=\035%\031=f\250\332<d\373B=\367D|\275U\234\207=\265\026\212\275\3052I=\2040]=\356\300\007\275\034\267z;0\\\021\274%\346\315\2754\3138\275\037\373\022>-\365\210:\211\tD=\264\035\"\274\367\227[=l\323K=\002\334\235\275\254\375\357=\036\"\334\274\330\352\026;X\216\353\275\267\247\211\275}\240k=\226\367n=C\016\216=.\360\333\275f\274Q\275\"\034\216\275\0034\246\275\346\214\342<\205\252W\275\201\277\323\275x\350~=\252\377c=\206\000M\275\234?X;.\273\345<\263Y\\\273\023\232\217\275\"G\375\274gM\266<\225e4;\013\354.\275a\204\251=\311\204\237\275\021a\373<&&\244\2744\202\272=!D!=\200\277]\273(k*=\301\026\352=\363\026\033<\021\230\220\275\027\177\314\274\321\024\332\274\312\245>\275\242\372\237\275\032U^=\243)\326<\224>\233<\243\021\021\274]\355\200<|\001<\274\320.\214\275\311\213\371=\223\270\200=\312\"\365\274\217]I<\231\300\275=\270\014\003<V{\335=\013>\336=\215\374k=k\241E\276\251~\221=#\004\221=p\277\243\275\344I^\274:W\344\274/\342S\275\317d<=\251T\245<4\210\240=-.h=\230\2073<.n`\273Y\370\r\275\243\303V<G\302\005\276\026\240\346;\243\344\201\275\224{\215=\372\354\014=L\254\022;\307\036\226;0\212\031>\232y<=)\255\256\275k\303V\276\227\354\213\275\356\333\014>\255\315\270=\022\274(>\020e\223=\003{\222\274\355\031\233<*\362M=\316k\002\276C\232\321;R&\006\275!dI;\343\364\237\274\2550)=\322\350\260\275\225\2204\274\310\247==\372\245\014\274PM\344<\262\303\004\274/Q-\274\354T\260\273\373M\021\276\013\240\250\274\323\243\034=\006Yn\275z\024\373;\243d\007\276R\242y\276\351\347\311<\240L\010\276\351\353\270<\300\206\252\274&y\263\275?\030\250<4k\236\275\357\361\244\275\271Q\314:]\000)=8\010\215=\346\350L=\274\235D=\324m]>\252Z\033=\320\245P=\236*\213\275\326\032{=\r(\226<\240)\353\274\311P\250\274/\321\037=\351V\004\275\022\0145;\274/\302<\001\240\377<A\374e<X\020@=\301\252M=\tl\006\276(\0244=\230n\310\275\274c9=\357\214\230=\302h\2519!f\376\274CZ<\275\3043\035=1\314;=S\306\247=):~<\266pj\275@\316\313\275\322g\353=\267\007?\275\000$\252\273n\213a\275\243\315\255=\325\344\206\275\203\364\263\275\275\030=\274\354b\030\275\321@\303\274\241[{<\313;\201=H\032\313<cM\211=\013\373\020\276\367\002\037\273\036\370\312\275\276Z\r>\303\\\251<\263\233v>\031\242%\274\343\257\336;\010\302B\275%6==\247\017I=\000\215\005>\035\274/=q\2424=\256\245\026=\367>\270\273J\270\010<\222\034+>\246#\006\275\305\276\236=E\322l\274@bf\275\367\3309;~\250\010=\333\206\335\273Vc\271=\256\031\365<R\343R=\234\333S=\363\363\204\274\301\026H<m\324\350\274\277\004\213\275\0054l\275\036F`\275Y\017\225=\232\256(=M\253\033=\025\222\005<%\357p\275~KT=\244\353+>\340\332Z=L\263\220=/\3745;\323\337\036\275\014\207\323\275V\372@=\226[T<\307}\276\274\020B\245\275#\016\212=\306\t\243\273\310q\306=\335Lj\275\222@\031\276\312\231|=\027\211\215<\225d\031\275\272\233\003\275!\311\344<]R\341\275dm\334=\"\2120=\301\333\364\275\370pT=\232\013l\275\371qV=\267\201*=\304\340(<\204\ty=\035\251\254<5\327$\275\014SZ\2764_\035=<\243\037=m\335\253=\232\316b\275=\314\223\273\363\232\360\275ml`\276\3501\326=y-f\275m\327\007\2756\232\243<\200\350\036\276\247)^\2753\331\265<\260m\225=S\017{\275\314\213\344\275H\022\232\274\232\'\336=\245\356\311;>\356\222\275~`\275\275\032\235\243\275;\236\003\275\263\3016\275P\241\323\272DL\301\275pWw<h\000\366\274f\254\031>hy\032\274a\342.\272\0017\325;\241F\020=\270\242\307<8\260\327:\334\005)=`\252\345\275\313\323\300=\316\374x>\201\313B<Y\255H<\3433\317\275Ih5\275Va\r>K\253\306=q\341l;\013n\235\275\177\353\223=\202\037\217<\032\3320>\277*%=\215\233\325;\356p\212\2755y\372=\200\r\223<Z\250\216\275\357\331 =\200\360\336;d\207\344\274r\002\251:#)7=%\214\001>b`\343\2758\231\310\275Z\214\334\275Y/\2138\334cq=m\250J>,^\001\275v\312R=~>\240<\2624\027\276\206|\271\274\225\010?\275C\347I=b_A=.\376\252\274v\314\211=W\035\r\276,^{\275.\352\367<%,\033\276\250\203\303;\334\021\313\274f\236\210<\347+\024\274\t\366Y=\203\370==\377\257_\275\323\244\321\275\177\247Y\275_!\231\275\"\360\371;Yv\236=Ju\367=\255\322L\275\351\221\337\275\375\035\001>\0046\343=\304;\334;\3066\005=\003\266\033=\300W7\275\313:^=k\315\353\274|\031\016>:`\250<{.-\276\324\246\303\274\2117\373=l\251N=Vr]\276\334s\346\274V\233\331;\"\301L=\007\2678=5e\007>K\317\t<\257\337\211\275w\232\206=m-\207=+A\217\275\0345%\276\003s\236=\017F\006\276\366\230\250=8\203F=U\371\020>y\301\200\276\355\033\265\275b\025\001\276\314\202\274=\313\353\225<\312\366\250\273\020\007\013\273)\241r=s\343\203=\031W\202\274\302\025\376\274\217p\260\274A\341y\275op\020\274\351\327^=\310\343a\275\221\350J\275;\341\337\274\246|\226=\270 2=yE!=\265\225C=\327\3143\275m\242\274<\366\\=\275n\002\260\274\227\013\207\272j\215\203=\033a\262=\260z\227\274{.\321=\205\350\001=\334.\311\275T\241x\275\366\340E=\007)R=5L\025=F\3172\275\370\267\322=\234\257\226\274w\303\203\275\220\365\244<\355\'\357=\001\263\013\276\344\366v<\234u\347<z\314\t\275\225\366\272\274\361\005\357\274\031q\002=\253\262D\275\215#\211=W\310\236=GQ\017>~\255\324:I\254\367\274\377X\003=\202\304\274<\315\n.>Q\340\307\275\267\212\316<\'\226\243=1y\036=\202\272\224=\002\274\254\274bE\006\274\361\231\271=r\375u=\256\027\007=\250Fs=\034d@=\324\00539\210q\014=w\2209\275\205\270j<\003\353\212=W\376b>qU\336\274\266\212\356<\233\303\n=\313\253\207\275\357\026\020\275\310\363W\275\372\204\256={\333\202\275:\337=\276C>\177>\222\276K=C\t\332\275\361\202%=G\006\004\275\217+L\273b\311\311<\231\024\204=\235/\017=u\306\335\274\261\331I=\334\273\271=\\\344\267\275\001\312\000=H|b>\352\336\256=\361\271{;\260\240+\275\226\330,\275<\027\312\274\223\340D=\273\225\330\270\036\350x\275np\215\275\360\000\374=\350KN=\350P\300<O\201\350\275i\351\017\276\314\017+\274\273\n\325=]\305\276\275F\265\"\275\356B\372<\212}\006\275v\317\014\274c\205\246<\202|\\\274B\211\206\275 b\225=E\266L=\346>(<\322\275\243=%`\207\274\\)U<E\3518=\371\231\207\275^\371\237=\352\006\243\275\\\344l\273.e\303\275$\266\226=\347\317\226=}\345\307=\275D\210\274\013p\014=\3124\031\275\201._= \345\271=G\030\324\275&\307*\2753\333~\275Q\330\256;7Q\247=\316\2372\276U\017~=O\351\304\275s\026\003\274\255K\014=Sha\275YR\310\273\230c\276\275\251\332\210=\307H\227=G\353+\275\356-\r=\342k1\276\201!}\274iC\340\274\344_\370\274\227\242b=o\005\253\274\355%\032\274\254h\014\275`\024\032\275\023\213y=x\251\335\274@\323\230<\202U\016=\273#\226=\003\306\022\274\362\214\270<T\245\030\275\263Y\230=\235\236\317<{s\217<\317\034\217=\320\332\226={\233)\275T<\237\275\234\030\200\276\320y\335<D\021.<P\357f;\215\321\245<\"\337\224<;\263g<\367\256#<\006\320.\276j\335\365\274\360j\235=L\030\002>\200\235J\275;\032@>\232sK\276s\236\034\275\252\3510;\022\270\253=\241\202<;\224b\224\274=\211b;\177\203\276=XZG<\343\275\262\274\270}\351=\027\334/\275~\361\005=U>\311\275\235\367\246=(\323\314;\005\372\020\27559j=\203\246d=\256\n\r\276\035p\207\275;)m<a\025\373<(\277X\275\370\3614\274v\362\245;\236a\226\275\347.\005=l6\013=\265\004_= \320\214\274\350\335\270=\013\326\034\275\025m\324<\rr\211\275\020\3013>6\252*\275\016Q\006\274\232\235!>\003:Y>\367\265\235=\227\343&=E\010\030<\r\254\313\275m\377\321\275\264\027\024=\314<&=Z\250,\273<t\372\274)a\235=\027y\232\274M\033\330\274\316\355\344=\347*\264\275\030\252\207\275\241\354\217>\'J&\276R\353{=R=;>\004\312\216\275\335\272\275<x\002==\325\313\224<\016\215<=\rz\032\276\\\342Y;\346|T;Y\221\312\274\347\362U\275\265P\260=\302\222s\276\317\253\272\275\207(q\275\233WE\275\300f\353\275\254\333\303\274\005\330\270\275\264a)=\353B\232\275(\251\242<[\376\030\275ty\315=\354;\220=em\216=\245\242\320\274$H\231=j#\344\275\032\262\367<\362%\220=\355Z\376\2744\350j\274\345\376\205\275\'~Y=R\356\232\275\3061\021\275\377\360\217\274\010\356u\275\272{\002\276\335A\027\275\213\277\343;\354\322\246\275#I9\274\3159\374\275\357\347h=^\301 <\274\014\311\275\210+\243\275\336\312\212\272\364\215\221\275\265\300\204:7t\2514\016\330\271=\316\247#\275(\016\235<\224\251\375<\204T\360<\331\002\327<-\235P\275\264z\372<\017l\237\274\252\224t=\260\264\017<\013\202\270\275f\245\037\2745j==\211\021=\275\215y\345\274\372\201\003=!q\022\275\227,\032\275\003+\262<\014\267\025\275.\321\001=\030Sy<\010>\241\274\006\316\257\275Y\247\377=\260\377/=\341\356\333\274My\034;<\010\225\275\216\211\031=\334\032\275\274\377\362\000>\301 \215<B\263\304\274\243\241\260\275:_\036=\031R\3319\224\344[\275\250pC=Ii\303\275l\352\000\275<\244?\275=\365\373<\033j\305\274Ox\320\274\023(\237\273Y\362\222\274\013\371z\274\331\342\205\275\277\327\216=\303\334\236=2\236\222<\216\212@<\026\271\273\275\354\347\212=\325\267\222<\371\203\312\274\342\204f\275\321\240\031\275[h?=o\253\213=N\203\277\275)\332)\274\272y\013=;\013==\345W\006\275\377xA\275l\266\352\275\233\371\324=\3447\354\275\251\235\000>\213\275[<.r\260\275\"\202\213\273\356*/>\307\364\316=\240\245P=\360A\226\275\220\037\002=et\024>\226\303\201\274\236\036f<\344G\224<\203\004\330<@\025\330<\252\306,<\316/-\275\004\312\367:\270K\245=\313\"\220<.\252\034=\253\320\035\275!\243\023<\364\261\037<\003\366\270\275\233\204\242\275\207\364Q\275\311h\373\2746\355\361\274\244\334\335=\370\365\226\275\270n\346\272\352\026\321\275\210\224\000\275\317KO=\370~l=\277\345\002\275\317\204\244<\336H|\275\302j\216=t\364\214;\205\3000:\264\377\t\273\031\257#\274\241n\216\275\022\210\336\275\270\006\313\275\374\302_=\014w\360\274\342yF=\341b\307=1\374\246;\261%\370<\311a\376\274\205k\031=\037V\2529\324\023l\274\273\247\007\275\320\271\317=\325\327F\275\207\036\212=l\021\373\274k\007\203<\245X\243\275&cC=\017\235Q==\340\020\275\261B\210\274C\250z\274\035\277\344<>\367\206\275\347\356p\275y\003\363=\372\003\203:6!>>Tr\222;\331\363;\275\275\nz=~g!\274\306\263\217=\014\262F\275\'\203R;\317\274\215\274\010\223\356\274u*r\273\000\237h=\301\023\240\275t\264\215\275r\320\233<\001\031#<P\361\005\275\317\3322\274\346\273F<5g\240=\305)\020\276\361\324\211=\313e\323<\337s\225\275\032\205\223\275\257H\201\275i\2505>dc\365:5\274\345\275.\027\345\274\231\372-\276a(3=>+{=\376F.\275\233\200w\275\2337T\274\267\267\305<7h-<*\315E=?Z\323\273\233\275\200\273\331\277\215\275\266`\302=\221,\\\272\251\311\027\276\234\325;=\230<\027\276\006m*=\361W\213<T\365/\275\244\325\231<\3371\243\274\021\016\220>\016\323\207<_\352\246\275\275w\003<N\326\365\274\000!\010>\334\371\315=N\023-\275&i,=\365\236\363<\357\272\356\275\301j+>\223\341\201=W\027\026\276\222r\342\275\353n\005=]to\274L\263\226\275Z_\014<\316\3541\275\202\263\223\274Q\030$=\256\255\224\274\304pm=a\3429\275t\364G\275`}\220\275U\3476<\222y]=vB@=N3\037;\233\374#\276\355\023d=\224\371q\274\245~<\274\302\035\'=\222\031F=\261\253\261\274UV\031\275W\271r\274\333\305\352;\343\236\323\275<a\371=\007\300\271\274\201F\331<\213\323\226=\267\340\321\274\313\371c=\306\346\221\275\331\031\t=\275\247\\\275\032\257\014\275,\340\242\274\020\314Y=\237\360\233=\344\320\271\274e4k={\376\331:\243r\n\276\250i\265\274\016\ne=\\\324T\276\271\016\347\273\003\250\344;M\333\020\275\331\331\263\275\325\252\261\275/_\234\275\030O%=\227\003<;\260{\362<C\310*\275BF\262\275b\026 \275\211N2\273\221\263E>;\2634\275\265S4=o&\202>\203t\334;\276\266\226\274\032\365\222\274\005Y\030=fd\267\275T\023\271=U\331><,\364o>]\312\305\274\250J\323;-\002y\276}\252\214\275K\260\004\276v\026m>S\264\250<!V\357=\036g\037=\002\246\346\274%\301\204\275%\246\276=n]\010\276$\261(\275\205\364\232\275\\t\260\275\016\210\022>\325\310|\275\310.\350;\364B\265\275O\311y=7\242I\275G\345\321<G\337#=\273\300\351\275\330=\242\275\357:\370\274\233\204\244\274#\375\017>\2622\323=\2030\312=5\363\021\275\'\345\271\275h\027\302\274B\367\210=\305e+\274\305yt=\242\242;>7*\353\274$\321Q=\37583=\005\264\213=\231\253\322=B\377\346\275;\231%\275ZB\030\275\367e\303\274 \2171\276F\343\374=\256\365G\275\027d\262\275\224p\226\274\025\355\217=X\314\356\2739\277\210\275\253\345O<T\016\312;\313\004]\276c%\232=\013=\014>\013\006\316=\254!9\274Z\317\236\275\342{\201\276\274m{=)\347\370<\324g\317\274\360\213\333\274u\254\321\275b\217\031\275\257Y\030\275J\253\"\274\334\330\352\274\232.\335;g<\252\274\215q=\275\265&\337=5\206M=\265\214\222<|\310\266;53J\275U\203\001\275SWL\275,\035\214=C\262\355=s=\247\275\023\'\236=\245b\333\275\305\363\300=\000\244\275=\357\314u<48\211\275\347~\365\274*|\215;~\210\233=\275pN\274\376\037\254\275gn\210\275\366\264y;\305\327\276<6\215\221\2756\035\221<\202\362\255<\374\357\361;\262r\266<U\260\325=\276\214=:x\370\253;\200\375v\274\324\271\033\276\375!\264<\265\024_\274\032\276/\275\340\003\243\275\306\'\"=\t\034\264<\261\300\213\275G\215\037\275fO\030\276\371\016\245\275W\035\326\275\213\374\334\274\240;\256=\033@\210=\3163c\275@\331\200\275\031\246\323=\262\215\016>LUO\274<\353\340\273\027\0312=\334\321\256=b\265\225=\231\021!\275\274\234\220<&\301\327\274_\237\013\274}\223\000\275\213t\"=p\264F<\026\320\310<\375\233\241\273prj\274\272H\001=#\372^>\315\270\345<Z\330\332;\337\306\237\275\357\231\346\275\370\3412\275\270\270/=X\277\277=\315Kl=6t\254\275\217\303\206=w\300\025\275\344\310\212=soq\275\033q\020\276^`@=a\t\217<\350$\207\273\366`C\275g\0311\275[f\273\274\016\231\017=\301\007\347\275?\237i\275\261\352M\275|\1777=}\273\237=\235\244\237\273\274\303\322\274\370\306<\275\311\227%\272\327X\034=#\277l\275\306O\320<Qi\227<\014\332\001>\320%\025=\014\351\377\274\224\022V;Q\353\022\275\242t\321\271\312\306\347<\252y\261<\306\n\177;9\302g>$\253\330\273i\230\004\274\245\025\r\274!\221\236\275\322\241;>1>\013=\032Wp=\207W9\275\320O5=\203O\360\275qf\361\274\215JZ\275Et\375\274N\326\232=\306\250U<\244\346\320\274\310\3645\275%\214\321\274F\272h\276\036Q\034\274\362\013\000;\231\274\200\275\213..=\335n\260\274\022\'\220\274\016\224\211<\346\300\217=\215xt\275\377\236\215=yQE<\264\330\216\275\212\232\207\272/\007d=D\320\t\274\267\022\360<\265\300\"\275\035\013\323=SV\376\273\315\210\221=\371\270\246<\222a\002<\335\327\256<\307\217\017\275\000X\352<A-K=m:\270\275\002\225,\275Q\311\263\273)\362\233\275\036%\013>\365\177\232=\270\310\327<\335\004c<\233\351\254=(\325\037\274\361\200\201=0\340\232=\004&\'\274\241\355e>\370v\207\275\350\321\017<w\300e=\202\375.\274\220\330p=\3164\337\273\325O}\2733u\032\274\336qF=r\210\340=\023p\234\275!^\247<Y/\365\275\322\223\332\275\334\007\225\275\372\243\311=\345\217\204\274\337\275\220=\237\212\277\273\014\377\021;\347\030\017=\261\370V\275\267\3511\275\021\206\n=\201\347\030\275\t\2669>\337\301\205=\224\365\030:\252\036\032\275\026\362/=\334w\007\275&\217\010\275#\360\242=\221 \215<\273\034\030\2764jv\275\n\314\020=\275[\317\275b\275\006\276_\226\263\274G\017M< \235m\274\026\364\272<;\250_\273\370|8=\324\362\217=\330X\252;\270Q\264<\313\031\372\275\005\227*=\004\240h\275*\376\334\274^\214\351\274L@\221\273t\356\351=?d\210=\221\353X\273\225\213\342\275\345\206\314<\246\0169\274\237\022v\274P\206B7\263\275\202\274\351\360\260=\300\200Q<ve\006=\260\371\267\275\202\350l\274`\315\017\276\202)\024\2751>\232=$0\327\2756*\236\274\230\276\247;U\342\r=p\311\001=T\004\265<\210\263U=1\217#\273\026\211\247=\337m\\\275#\035\003=\205\232\315\274\230\025\351=\370\013\314;s\310\356\275\357\324\245;}$\313\275\303\003\003\275\271\300B=x\205\000\275\373Z-;c\325&\275\035\214\275\275\360\000\007>\221\375V\2757\030\006\2743\204\243=P8;\275\231S\217\275\002U\221<a]$>\342Q\331\2756\'\001\273 \313s\274P\324*<\264eo=}(\004\274\234Y\371=\014%5\275\223\000\t>\327\035\"\276~\235\240\275\260\316\254\274\177\356\003\274#u5=\357\342r=\256\206\264<^\255\314\275\213,\367\274\307\2724\274$\177\373\274\205o9=\214\233A\275\302\371h\273\214 \210\275\265\004W\275lS}\275P\341\014\274e\237\212<\274p_\274\366C\033=v0\372<PS\215<)(\231\275\254\337\237\274\202k\250\275xE\221<T\005\356\275\n\253\001=\223\365X>yo\375;D\014\226\274/\373\246\275\267p\350:\230\366\231\2748\323I=\002:\026=\265m\373<:\270\360\273G\331\253\275\257\t\020=\020\232G<\t\205^>j:\356\274\341\251S=\000A\210\274\tJ4>\256\306\000>-\245\017\275f\005>=\000S\300\275\337-\242<\203`,\276\231\252\270\275\312\026\305\275\376c\243:_c\031=\222\332J\273n\231\366<\351|\321\2759B\210\275\272\235\213\274-\300\337\2742\223\252\275\207\263\231=1\252\375\275C_\307\274\036L\024>\025\362+<\344]\200\275\034\355z\274\345\245@\275j\234\263\2742Y-\275I\327y=\230D\332\274\006\025\376=\221-\213=B\376\256<\340)a>Q\324g=N\347\260<\375\300\303\274e\275\247=7\366\004\276\2774\017=\324g\222\275\347\'1=\034>\322\274\372\211\313\275\2005,\276\203h\005>E\211\034=\"`%<\375\227\323=\206M1\275k\341M<\221eN=SK1\275\316\343\373\274\330Q\277\274\365:O=\251D\244<\014K\314\274i\326\270\274>co\275\325U\354\275YV\236;\010j\004>EN\n\276;\241\214\275QY\003\276\304\010\206;\374\252\217=4z\334\275\270\246,\275k\373\247<\350\013\202\273\030\213\014=\210\261\335<T\3143=gg\034\276\201\262\211=f\261\\\275<r\"\275\302\311\375\274\324\325n\274\'L\277<\204\205S>p\304\205=\'T\340<\233\000\215=\352c\260=\327Ba\275/\245$\275&Z\205\275\316&\212=_g\256<\300K\234<\n3\244\275\210\253\032\276\222\337\353\273,\3309::G\236<\rs@=\244\333\020;\002\032\236\275\027\372\010\276\252[\213=y*\253=\3502\225=L\266_==\016\r\275&v9=\376c\033\273@\342b\275\"\334\003\276\017\367S=I?\230=\035\017u<\373\rL<\275\314K=\362E\276\274x\247\002\275)v\341\274\311*$\274\302\177e\275}\331\200;r==\275\013\203\032=^b\322=r!\024\275\302A\241<W\n\357<S\233\330\274\223\025O\274\035\340\214\275\004r\034=\317u\032=^\226\205=\204\243\264=\021\266w=1\320O=\354\204\211\275\346\035\027\275A.\035\276J\370\204\273\205\213\223\274\223h\034=3\211\323=\370\366\213=xu\275=G\2474\275\321l:\2755\3611\275\205v\\\273\r\307\332=\rO\221=&k\216=\361\326\352=l8\033<\310\354\245=\017\\3\275BE\251\275t\023\037>\275T\263=\226\000\030<h-\211;\227\221\2119\355\333\010\276j\r\010=\020i\036<\026&\305<\267*\025\275\344\t\375=\215 \006\275\331\351\236\274\336\203t<Cb\316\274\305i\323\275\343\221\214<N\343\215\273\3029\254\275\010[7\275%\322\004>\230\032e=\333\250\226\275_\224\242\274\226G\204\273\314*\013\275\016#\225\2747\240O\275\302r\336;\330~\251\274\306K\037\2757\252\223=\177\204O=\342\352\250\2756 \010\275\\\342s\273\005\343\025\275i\370\275\275\034P\032<\300\242\267\274j\006p\274\362\354:\275\234)\177=\345,\364=\237\200\313=\366\362\265\274\000m\344<\210.\230\275\326Q\273;\023|\255\274\301\261\201\275O\225\002\275\242o\237\274\013v\263<\261~\377<E%\271\275\241MY=\t\310G\275\3608z\275\241m\335\274\247H\274\275\030\274\204<\312o\261\275\317\"\337\274a,\225;\247\250\330=\034\317\225\275-Cv<X5)=9\002\037\275\226\314\306\274\350\275\336<\031y\235\275\005\315\026\275\360!\r>\013\034E\275\217\364\350\275\2546a=\273\240\235\274\323\300\227\275\312\\\371<\363\274\237\274\270\367Q\275\250\3716<\016\264\206\275\263T\212=\337\266\246=\330\0309\272>\225\200\275<\337\306\275|\211l<X\034E\274\021\252\224=\245\351\013\275\2046\222<\364V\305\275\302\257\310\274\276(\322:\010\271\027=\225\252n\275~\027<\275?_\023\274\333\205D\273yP\207\2758f\347<5su\274\027\242\t=t\265m=\301\010\222=r\346|\274\340\373\322\275\372\254\217\275\337\237\353\273\262&\n=k\362>\274\246\370\030=c\023\351=L\362\225;Q\201o>\247\310\013>\260\212\246=\311(\000\273\257\241]\275ke\242\275\366\206\242=\262\207z=\327\332\276\272.\255-\276\234\371\307=0$\233=\367\326\363\2746II\275%\177\333<K\355\330=\276\277]=\020\322\230=*\005\314<g\263C=\334\004\366<\302c,<\274%\276<\262$\320\275\022\200\366\2757c\t\274\004\024];\223;\207\273\270C\307\2755k;==\262 =\377\005\267<\363m\227=m\325\217\275\253\235\306\275eE\261\274\240\352\263\273\322\377F>\207\227:\275y~\274\274\253\305\024<\201\3764\275P\001\200=q\247H\275\372I\203\275-\003\243\275XU\325\275\246\027\251;\221$9\275\221f\224=\262r\266\274\254\017M\275zF]=\262\000\002=\364\021\227\2752\233\255\274\333\210L=\023\254z\275\t\234u\275\310o\202\2751g\032\274\224\273\023\275\237\' <x\002\"\276\002\030\236\272\324\367T=X~\364<s%\314=\325\233\250=\271t\n\275\224]\311;\330 \224\274|\0217\275\232-\226\275/\027\232\2759\213\002>\341\270\245=]\350\320=\177\330C\274-6\216=|6\324\275\356\246#\275\322\203\224\274\213\341\256=\211F\324=\333\303\034\275w\022\233\275\007?=;\326\025\'=\336vO\275\022ec\275\353\021\213=c\035v<\261Z=\276\374_\341\2740|\320<^P\225\274n\336s\274\216\357b<\246\']\275V\260\254\275\024\224\222\273\337\031\257\274\001\237\327=q\377\310<hI\275\275k\237E=6\310\003>|\"\331=\224\303\347\274;\213\210\274f?_\275\003\207\316\274\305\376\307=\027\271\341\275C\262\n=\033\303\243=\201\363\303=\323\\\332<\374\rC=a\351\022=\001m\332\275Q7\342\275\371;\005<\353\261!>\022h\331\275 \222\337=W\321\016\274\000\365`\275\322_\204\275/\230\033<g\263\273\275\261\257\003\274\200\017\250\275\210\251\232=\241k\037=\267\350V=#^\327<L\'u=\301!.\273\373\016\202\275\377\223\222=\326z\334\274\271\256\274\275\001\002\317\275ng\254=\330\235\211=iq \275Q`\235<&[\220<\342\322r\272\312\326\027\276\017\312\203;#g\267<\024\255\225;Q\036\331=(*\204<\231~\025\274\276e\266<\375\027z=%\374n\274\014\322\250=\000\250\223\275:w\231=c\365\027=j\340\232\275\207\031\013<\266\353\202\275\302c\240<2\223\261=D\026U\274\312K\335<B\374O\2746\177\321=\023\021w\275B\353\366\274\323\325\362\275\213\345\311\275H\342\007=\016\250\345=\\]\004\276\222\252\001\275EDI\274\357\357\271=\216\352\036\275X0\206\275q\2721=\365\335\006=_\302x\275jk\037\275\224\230Q=B\350\273\274\t\005\300\274\315]\364;|\0372\276\371*Z=\361\211\017\272\321?(=\206=\024\276*\270\227\273?\270:\276\326V\314\275\2428\303\275nl\256\274\372\266\352<9\350\246<\217\305\t\275\214\225\213;-5\250=\2411\n=`D[\275\227\\g=\356\344\\\273\225U\231<\267A\322<20@=u\255\232=>\225Q</?f\275\375\006\326\274Q>\002\275\010FJ\275\202\312\322\271\322\016\225\2759;\341=\235\010 =\270\354\016\275)\327I\273+\310\212\275\221\305\351<7\325\004=\336\252g\275\216\355\'\275\321\251>=18v=y\014\266<\354\354\005=j\267\021\276R\303\366<\020\004\227=\255\335\270\275ps\r\275\347\317\213=R\274\322\274\354\237\233=r>\303=\006f\206=5\325\225\275M7g=\341\260\001<*\024\005=\000\245\257=\3312b\273GG\321\274?~\034=\315\237l\275/\233\014=\n!\322<l\322\031=X\262\310<T\016l=Mo\322\275a\344\004\274\312\321\354=\317\217\252\275\303j\343;\225+n\275\026M\364\275P\337\367\275\243t\274=D\305\002\273\240Q\014=7\323\241<\025z\344=\031x\022=\276W\221<\371\210\017=\375\312\277\275\363Z\271\275\245\324\343=t\375\312=\031\231Q<!X\002>\257U\"=\250\000\232\274\014\365\224\271\272\210\025=\036\3240=x\317\243=$\004y\274\244\217R\276\221\363\317\275\032\253\"\275~\277\021\274]\005\301\274\220;4=K\305\343\274I\250(\275\0070\265\274\334pC\275\331\261\223\275\020\010\'=\177\3217\275\222@&\276\330d;\276\367\306\335=\340`\272\274\221\216\220\2759\233\260<)\t\350=\033F\312=\271Yw\275\245\224\003>\023\275\354<ZP\351<\203\r\203\275\304\371\316<7\273\304\275/\222B=W\347\345<\3721\222= \2472>\001\t\202\275\177w(\275\225\256m\275\306\237\037=\367\273\257\275X\016L\275\"\303\200\274\343T\241\275\024\266\264\274\365U\211\275w\n\235=\307\215\242\275p\322\362\274\307\t\005=\216\n&=\\\370Q<\030\036[\275\\\361\364\274ex\357<\025\223n<\0376\n\274\215\370>\274\245Y\216=\262\017\251\275\275\375\010=^\314\214\274t\240d\2758S\343: \210`\275\007\017\345=9\374\004\275\377\212\252\275\366\"\031>\222|?=\273\005\261\275\362-\320\274\333I\272\275\017P\301\275\034\013\225<\351\262\251<\242\305\304\273\244f\032\275\337.\025\275ro\217\274\357\223:=\242m\363=j*\360\273\272(\234\275pA\370<`\354\202=\256,(\275\305\322==\031\376\372\274\261y\233\275\365\226 >\240i\031\275\3138\004\275&\321\003\276\243\330S\275\263\254\265\275P\001\350;b\371V\275\237i\2559w\344\013\275\316Na=\301+\250\274v\220\355=\021\234\365;p:\241=\273cl\274B\322\226\275LY\024=a\333\323=\016B\001\275\237\206\377=%\001\306\275oK\275=\223\333W\275\242\333\032\275O\315\366=Z\336S\273\317\217,\275\025u\274<?\275\212\275X\310<<\257\247a<\317\221\276=\326{\263\275:\265M\275\0239\213<\361\212\344=\222O\020\274\234\250\200=8\201e\275\021\016\227=\325\360]=dl\360\274\245~\366\2747m1\273Q\221\037\274\370{Y\275`?\343\274\235\314\246\274%\362%\274\352\357*=\227\264$;\303Y\247<\321=\221<*\232\370\274\016c1=vv\333<\267\362\333\272\307\220\241=\374Ev\275@ \257=B\342\">\213-\216\274\214Q\275\275\r\332\225\274\351\224\254<\240\177\336\274\354nL\275\243\225e;2\242\014\275\237\314\234\274>1\351<\024\014\351\273\367\306A=\366&\201\275e\337\277<i2\343<&\325Z<\257\366H=7\246\363<2\"\013=\022\317c<\314\2139=\357\2146\275\254\005\001=\347\034\242\274\236\0174=!f,\275\327\227\r<\300\335-\275N3u\273\252\2721=u\311\306\274\352g\252\2757a\216=gR4=El\005=\344_3\273;R\352:$S\226<\n\363\315\275$\003K=p)\276<\2621e=\nO\223\275\346\361\201\275\345}1\275`\224\271=\321t\201\275\361\357\"=\364\310\000\275\363\177\r=\307e\315\275\225mz\274\\\254\000\275*\263t\274Af\001=\033\2336\276!\240\245\275#\007Q<9!\240<\302[\327=\2251v=\203\241\325<9\313T=qm\216\275\234$\242\274\352\003\367\274g\256\253=\227\353\312\274y\302W\274\344\346\367=Y--=Jr\014=\236<\024\276\027\177\210=;45=\'\361L=\026\262\220\272\263T\030<r\357,