node {
  name: "inputs"
  op: "Placeholder"
  attr {
    key: "dtype"
    value {
      type: DT_FLOAT
    }
  }
  attr {
    key: "shape"
    value {
      shape {
        dim {
          size: -1
        }
        dim {
          size: 4
        }
      }
    }
  }
}
node {
  name: "cvs/begin"
  op: "Const"
  attr {
    key: "dtype"
    value {
      type: DT_INT32
    }
  }
  attr {
    key: "value"
    value {
      tensor {
        dtype: DT_INT32
        tensor_shape {
          dim {
            size: 2
          }
        }
        tensor_content: "\000\000\000\000\000\000\000\000"
      }
    }
  }
}
node {
  name: "cvs/size"
  op: "Const"
  attr {
    key: "dtype"
    value {
      type: DT_INT32
    }
  }
  attr {
    key: "value"
    value {
      tensor {
        dtype: DT_INT32
        tensor_shape {
          dim {
            size: 2
          }
        }
        tensor_content: "\377\377\377\377\002\000\000\000"
      }
    }
  }
}
node {
  name: "cvs"
  op: "Slice"
  input: "inputs"
  input: "cvs/begin"
  input: "cvs/size"
  attr {
    key: "Index"
    value {
      type: DT_INT32
    }
  }
  attr {
    key: "T"
    value {
      type: DT_FLOAT
    }
  }
}
node {
  name: "input_shift"
  op: "Const"
  attr {
    key: "dtype"
    value {
      type: DT_FLOAT
    }
  }
  attr {
    key: "value"
    value {
      tensor {
        dtype: DT_FLOAT
        tensor_shape {
          dim {
            size: 2
          }
        }
        tensor_content: "\000\000\000\000\000\000\000\000"
      }
    }
  }
}
node {
  name: "input_shift/read"
  op: "Identity"
  input: "input_shift"
  attr {
    key: "T"
    value {
      type: DT_FLOAT
    }
  }
  attr {
    key: "_class"
    value {
      list {
        s: "loc:@input_shift"
      }
    }
  }
}
node {
  name: "input_scale"
  op: "Const"
  attr {
    key: "dtype"
    value {
      type: DT_FLOAT
    }
  }
  attr {
    key: "value"
    value {
      tensor {
        dtype: DT_FLOAT
        tensor_shape {
          dim {
            size: 2
          }
        }
        tensor_content: "\000\000\200?\000\000\200?"
      }
    }
  }
}
node {
  name: "input_scale/read"
  op: "Identity"
  input: "input_scale"
  attr {
    key: "T"
    value {
      type: DT_FLOAT
    }
  }
  attr {
    key: "_class"
    value {
      list {
        s: "loc:@input_scale"
      }
    }
  }
}
node {
  name: "sub_1"
  op: "Sub"
  input: "cvs"
  input: "input_shift/read"
  attr {
    key: "T"
    value {
      type: DT_FLOAT
    }
  }
}
node {
  name: "mul_1"
  op: "Mul"
  input: "sub_1"
  input: "input_scale/read"
  attr {
    key: "T"
    value {
      type: DT_FLOAT
    }
  }
}
node {
  name: "angles/begin"
  op: "Const"
  attr {
    key: "dtype"
    value {
      type: DT_INT32
    }
  }
  attr {
    key: "value"
    value {
      tensor {
        dtype: DT_INT32
        tensor_shape {
          dim {
            size: 2
          }
        }
        tensor_content: "\000\000\000\000\000\000\000\000"
      }
    }
  }
}
node {
  name: "angles/size"
  op: "Const"
  attr {
    key: "dtype"
    value {
      type: DT_INT32
    }
  }
  attr {
    key: "value"
    value {
      tensor {
        dtype: DT_INT32
        tensor_shape {
          dim {
            size: 2
          }
        }
        tensor_content: "\377\377\377\377\002\000\000\000"
      }
    }
  }
}
node {
  name: "angles"
  op: "Slice"
  input: "mul_1"
  input: "angles/begin"
  input: "angles/size"
  attr {
    key: "Index"
    value {
      type: DT_INT32
    }
  }
  attr {
    key: "T"
    value {
      type: DT_FLOAT
    }
  }
}
node {
  name: "dists/begin"
  op: "Const"
  attr {
    key: "dtype"
    value {
      type: DT_INT32
    }
  }
  attr {
    key: "value"
    value {
      tensor {
        dtype: DT_INT32
        tensor_shape {
          dim {
            size: 2
          }
        }
        tensor_content: "\000\000\000\000\002\000\000\000"
      }
    }
  }
}
node {
  name: "dists/size"
  op: "Const"
  attr {
    key: "dtype"
    value {
      type: DT_INT32
    }
  }
  attr {
    key: "value"
    value {
      tensor {
        dtype: DT_INT32
        tensor_shape {
          dim {
            size: 2
          }
        }
        tensor_content: "\377\377\377\377\000\000\000\000"
      }
    }
  }
}
node {
  name: "dists"
  op: "Slice"
  input: "mul_1"
  input: "dists/begin"
  input: "dists/size"
  attr {
    key: "Index"
    value {
      type: DT_INT32
    }
  }
  attr {
    key: "T"
    value {
      type: DT_FLOAT
    }
  }
}
node {
  name: "Cos"
  op: "Cos"
  input: "angles"
  attr {
    key: "T"
    value {
      type: DT_FLOAT
    }
  }
}
node {
  name: "Sin"
  op: "Sin"
  input: "angles"
  attr {
    key: "T"
    value {
      type: DT_FLOAT
    }
  }
}
node {
  name: "concat/axis"
  op: "Const"
  attr {
    key: "dtype"
    value {
      type: DT_INT32
    }
  }
  attr {
    key: "value"
    value {
      tensor {
        dtype: DT_INT32
        tensor_shape {
        }
        int_val: 1
      }
    }
  }
}
node {
  name: "concat"
  op: "ConcatV2"
  input: "Cos"
  input: "Sin"
  input: "dists"
  input: "concat/axis"
  attr {
    key: "N"
    value {
      i: 3
    }
  }
  attr {
    key: "T"
    value {
      type: DT_FLOAT
    }
  }
  attr {
    key: "Tidx"
    value {
      type: DT_INT32
    }
  }
}
node {
  name: "layer_0/matrix"
  op: "Const"
  attr {
    key: "dtype"
    value {
      type: DT_FLOAT
    }
  }
  attr {
    key: "value"
    value {
      tensor {
        dtype: DT_FLOAT
        tensor_shape {
          dim {
            size: 4
          }
          dim {
            size: 200
          }
        }
        tensor_content: "\373\353\n\276\326\354\234\2741;\207\275\231K\205\276\003\006\316<yC\214\276\340\221H\276\271\324A\275\334p\034;\350oE=\250\222\232\275D\303\205=Y\025\336\275r\374\023\276mth=\3578\200\275\326\332\231=Vp\016=\001\000\214=\373A\226\275\220\267\013\276\211\326\211=\335\213\364\275\016\306\251=\200+(\276\350?\007\276%\207v\273\0137l\276\251\014)\275\313I\006>\257\326\346\275\264\272\007\274}`\002>\257\333\020>\031\352\266<\313\354\305=\373\312\217>\362\233\005=\311\027\001\276\341\341\300=\266\341,\276\315\313\023\275\266S\247\275\267:\266\275G\301\215\275\236\004\266<k;!=C\017\270=\315\021d\276\225\325\213\275r \201\276\357\353\302<\353\324\277=\372)\256<\225\'\244=g\034\304:W*\323<\225\206\312\275[>\217\273\213\322\234<\022\255Q\276xwN\275\206\245\310\275-\367\224\274\022\225M\275TQ\032\276\325V\366\274\245\204\205>u\274\246=z\021\211\275re\314\275~I\261\274\244\'H\275\311\306\021;\310Q\273\273\310\377y\275\036\3276=v\030\024\275y\030\367=\334\317Y\275,\305\251\274|\373\327\2748G\264=\025}\006\276\365\004o>\314\033$=\246\254-\276E\n\t=u^\246\275Z0\035\276#\207\341\274]\266\220=D\236\007=x\025E>\235\372\202=\322\213x=\200\215g\275\352\331d=\236\347\372\275\215\'\277\274\237(\324\274\002\344M=k\275\211\274\362\374+>e\266\325\272\251\205\354\275\352\235\350\274\360\3273=\251Uj\275<G\r\274\360\317\265\275W\322\232<\342u4\275d\367\272=\212\377&>b\034.>\027\224\303>y\370a<\300]\204\276\333\224\036=\337\253\224\276*\026\030>\214R\343\275\364\264\203\276&\031:\275pU\027==0:<#\347o\276 u\016\276\013\315\002>5/\343\274=?\317=%\357A\275d\201\242<E\203#=F\034\210\275\267\357\347>\266=\023=*\322\016>/|\200\276\203\250\334=\336\243\036=\311\341A\276\333\271\334\275qC\024>\310\327\301;\223\277\241\274B\226,\275\373\223\213\275\365\032\333=*\017\032\276\240i?<\302\230\007\275\3140\016\275\246\027\353\273E\307\262\274T\237\262\274Oh\312\274\253\201\334<\216\3648\276\311\250\374\275\010\307\340\274\034\312\'\275> |\275\016\272\024\276\002x\322\271\220\nb;1\007\325=\237k\377=\357\361\211\275\323\265\n\2760\277\321\273\373\351\226\274\361g\237\275\321\316->\345K\033\275\300\204\202\276a\005\320;\342\374\004\275\352\260\212=J\363\214\274,4\251\275\205\234\026\275C\323p<\035\361\374=\342U\016>=\257A\276I\354\027=UX\262\275o\230\261=\324\013:<\260\204K>;\370\024\275t\311f=\347*\027\275(B\226\275\231\232\026\276\267\036\345=\201\\w\275\035L\223\2754\004\013\276\020J\341\275e\325N=1O/\275\347x\354<\'\027\r\276\266\374\256\275:\273V\274\3176\037\276>\321#\276\266NM\276\301\325\005\276\211f\001\276\265\316\351\275\203\363\203\275\206\022\367\275\"\312W=\303t\377=%\257}<\274\341\344=\240\350w\274\r\'z\275\331N\r>\022\367\031\276+]\236=\263V\236=\362K\030>\021\000\t\276\221\031\364\275~1\347\275\254 \014\276\303h\022\276\315ct>\252\321\333\275:\2545<W:\245=\321\356\225=\226\022\366\274\322I\237\275\327\240\330\272\377K\252=\341\\g\276\025[\243=\245\\\260=\314\316\266\275\2249_\275\275.b=\247\236\363\275\222\316\225\275\332_\245\275\177,e\275\345\260\232\275\255\235\370\275\037\222q\274\027\370w\276\013\r\314<c\334\374\273\003\357\352\275\271C\270\275\345\334\264=\335\333\270=e\274\006<\246;\216=\314\203a<\335 0=J\243V>\261\271l<5\370\306=S\202\016=%\325\023>\357\341\223=\020\227^\275\035x\243<\314\2330\275\321\221\377=\373\217\356=f\037\370<v\363\241=yc\260\275\337\013\231=\005Df\275j\267\371\275\303:7\2761\272\364=\"\270\326=\2128\331\273=\215\300\276\230\037S\276(\374\202=\016\220\014>2\2736=9\031\003\275\324\014\002\275\225\311\236\273B\272\237=\324\344\013\276\027\304 =+\324\333\275\354\372t=\030\336\031\276m\366\273<\021\335\001>\364\271,\276_z\361=KQ\263=n\366\002=k9\302\275\n\r\322\274>\210\243;\224\255I>\004\205:\276I&\242=\273L\260<YH\376\275R\017\247=\314U\226=\231\232\032\276\320\337?\275\375\334M=p\030\221\275\361\337\327\276\277\243\021>L\204\313=\006\364\301>\344vL\276\013\215\003\276(4T<\313\223%>\224j\277\275\205\177\250\275\214je\275H<6\274M\311\006\276\376\240\022\275\232\356\306=E^\267=17?=\004.\273=\022\030\260\275J\230\024>\335\366\310=\317\345>=7\353\251=7p\214\275\346v\255\275\357\373+\276\326A9=sK\216\276P\\\022>p\353\023>_K\346=\204C\236=\177\343q\274\304\303\235\275\312\nV\275\230Q*;\177(I=Hb\206<\327\037\002>9AW\275\225E\335=\246\274\220=\007\334\353<\231\030\n\2764m9\275Bo\316=\rq\234\274W\260\344=\341\254_\275\326\205\354=\\\334Q\275\001 \267;\000\264\005\276\232*\034\275\002\365\305=\377\360\327=\350\370\321;\247\023\325;\t{B={I\263<6\230\021\275\037\272\375=\241\022\037\273\304\247\324\274n*\005>F\301<=\200k\246;\340\270\236=\264]/\276G\375\265\275\225~\304\275\276\003b<\025;\227=\221\305\020>\351\276\301\275\2569\037>\340z\201\275Y\374\026\276\202\245\177\273\371M1>=\237\004<:u\342\275\2159\022\276PK\270=\274\236\353=\260K\217\275OZ\366;&\226\253\2757V\316=O\313\260<X\340\273\271\2217\250<\320IP<=\332G\276\306\"\347=\022\310\371\275q\002\206>\206\013x=f\341\222\276b\243\336<gc+\276U\022\007>\010\200\013=\260L\240=\337\3600=Yy\333=Vx\374=\314\026\212=8\"\206\274h\002\306\274\273\033-<\262\266\302\274\266?\243\275\232\241)\276@\275\232\2742Zg>\030\n\202\276\206W\346\274\370\327\017=Y\366`=\"6\222=\3141D\274/\t\241=\341\3749\276\211\255#\274::\266\273\240\242\014>\371(\252\275\372\363\302=\340-#\276\300i\326<\207\343\200<\037\001j=\367\374\037\275|At\275\003\205e\275\314\204\027>Az1\276\340\247\020\276\336M\301\274\367@\230\275<\201\366\274\021{\226\276\t\372\334:\322\252\214\276\274\274\267=\004u\335<\372\001\242\275\r \365=\356\231\024\276\212\211\204\276\227\365@=\273\224\225=o\n\010>\r\307j\273^I\216=\004\024\302=Z\243}\275\013\025\376\274\002\177\320<\017\217h\275\304f\334\274\225w\322=+\305\235\276\000\313P\275\247\r\003\275\215\333W>\226D\226<8\374m>\374<\216>\377\007\316\2754\371\357=@*p>^\276\017\276\031\332\002\274\221\020\255\272I1A=JL\270:\005\262\264\2766\316\201\274\260\031P<\241\370\000:R\325\010\275\2752\261\275\246\321\257=/|\315=\006\340\302\274\273A\220=\263\356&\276\277d\267;`\224v\274\034\302\236\273;e4\276\311\330\004>\213C\244\275\371\036\200\274\337\316\265\275\260\274\323=\024pZ<\306\243\211;\334\356R>pT\024\275\324\277\205\276a\226\212\275~D\024\275\361\"v=\246\325\317\272\365\2331>\221\022\'\275\262M\261\275\233T\210\2763\324v\273nr\207<\256g\001=\00178=\310\243>\276\343aD\276\024\240i=\006\363U\275\n\235q=\226\002\230\275\234G(>\246J\200\276\033\266\205\275\220C*\275\251\212,\2742\325\330=\360w\261\275\227\376\213=\320\254\307<\317\372\344\275\241e)>a\']\275S\260O\274\3171\\\274\307\274@<\034L8\274\350R\352=\020F\252=sGs=\241{\006\275\230\250\302;{\206.\276{\3525\273\304H\002>\324\010\301\274\237\026\262\273\210\354|>\374fM\275\316h\270\275\027\214\202>\'\350\314=k\304?\275\000\323D\276\232\202\315\275\233r\246\273Q\r*>\357\014 \274!\033\355=X\246\367=\266a\250\274q\277\302=\372\003\016\276\023$\324\2753\332a\274\256\316\216\275\325\252\275\275\263\034\270=\366\365\023<s\246\360=/\255\027\275\304\365\027\275+ET>\227\340@\276o\210\027\276\266\373z>\212Y\354=\010\177\347\275\265\0168\276\013\260\231\274.\r)\275\0203\007\276x#+=\255\331\244\275fZ\016>o\376/=~\010,;\231\240\336\275\303\031\377\273\327\357\034>@\262s=\310\277\025\276 cH=\025\374T\276Z4\274\274J\260%<q\335\207\274\263\026\023<\013<\032<\322\'V\275h\354\364\275@\361m\275\310\216\336\274\203g\007\275V\314\261\274\263\311\265\275\215\251\010>\035\243\335=t\224%\276\213\334\236=\357\3457>\277\\\261=\215\360\244\275\253 \224\274\\\2347=\246\343\335=p\3549=\300[/>\367\242\224\274\205\322J\275M\307\372\275v\326\244\272\213i\205\276\254\223\321=\025\310\034\276\001\204-<#j\363=\233\000\377=\224\376\252=\314\250\004\276$\341\355<Dh)=\005\034 ;\n\035\t\276\375\034\353\275g\277e=r\353\\\274\n\217.<XT\215\275\236\322\247<W\340U\275f\003\372\275\224\360\027\276@\225\333<\244\"\025\2763\321\371=pI\317=\347H\000\275<\344\315=-\177\207\275\260\327\020\275-0\004=\330\215\260\275}\261\233=\322*T\275Z\373r=:\0008>H\233\020>[T\021\275!\203\277=iGT\275\340\230\217=M\306\217=\220:\226=\024\261\234\275Jf\001\276\333\321\347\275\0044\016>c\215\250\275-\315\203=\261s\204=\344`\227=\026\275\335=g\342Y\275\3513(\275\233\326\261=\256z\310=A&\250\275\331\244\307=T\005\332=\260\217k=\364\\\007\276r\036\003>g\336o\2759V<>vy\221\274\267\177.=m$\351\275\342\226\203\275\246\372\253\2748\022\377<\244\306V\275\221\001\265\275p\256\251=\272I\024\275\267C\270\274\204\333\201>8\250\377\275\030\372\251\274d\022F=S\337\311=0\302j<\260r\243=\016\320\031>\247\271\367\275\351\3474\276\355\'\000>n\276\006=\202X\234\275b\016\020=* \234=\255z\241\274\224\334\312:!`\026\275\006\010\225=\324\006\216=g\316S\276\205\004G>4\277\226;=\276\031\275\245(\360\274\340\0068=n]\240\275d\267\266=\251\207Z=/\254\325=\312*G\274\331\254\370\275\243\023F\274\314O\240=L\330<>\347\372\033\276\316\202s\275\330\222\n<\032\355(:)\302\007\276\276\325\006>\341\231\257\275F\315W=\330\250Q<_\322\206>\026Z\345<\031\232\236=\2431\032<\271\377g>\"|\233\275p\252\005\275\221e8=\253\346\320;\230\260<=\374\232\326>\370\246\277<\324\356\201\275\376\"_\274:\333\324\274;\210\007>\267?\207\275@\211\247=\243\'3>IU%>\201\000\256=\377RH\275\235\243\005\276\313\214\266=\353/\003\275\242\234\266\274\372\0220\275\316\334D>\003\327\203=\274i\230=\226\210\177=\207\357\021\275\260\271\204\273?\262\332=\010B\'\276`\314\031\276\023\217\211;C\263w=Fba\275fT\277\275"
      }
    }
  }
}
node {
  name: "layer_0/matrix/read"
  op: "Identity"
  input: "layer_0/matrix"
  attr {
    key: "T"
    value {
      type: DT_FLOAT
    }
  }
  attr {
    key: "_class"
    value {
      list {
        s: "loc:@layer_0/matrix"
      }
    }
  }
}
node {
  name: "layer_0/bias"
  op: "Const"
  attr {
    key: "dtype"
    value {
      type: DT_FLOAT
    }
  }
  attr {
    key: "value"
    value {
      tensor {
        dtype: DT_FLOAT
        tensor_shape {
          dim {
            size: 200
          }
        }
        tensor_content: "\241\326*\277a\032\376>\375\331\367>\233\025\237\2778\341~\277\305Bg\276G\020\311>\216p\006\2776\334\234?\277\2739\277\004\271\357>\036H\330>u\r\240\277\235.\342=\274\377J?j2\231?\212]\337?\210\342?\277N\203\210?\361\272\343\275\275n\026\277\3362\207?\034)\210\277\342\'\221\274\244\307\200?\200^O?M\344+?\252\000_\277\232v\246=\262j>?\320B\201\274\254o\n>\226<\300\275]C\013?\214.\327?3\233\371>\\z~=W\347&?yF\006?\265J%@\227\020\036?\347\310|?i\255\307\276\355\241>?n\310T\277@g\204\277\313\225;@\036\270\365=N\350\021@\001\031\330\277\350\366U?\303\365\035=\371L\232>\3722\210\277\023fo\275v)\336\277E\271\210?l\377\006>\036r\307=\257\025{?\241\246\006\276G\262\201\276\233\347\004\300\331~\r?d2\364?6B\371>k\264 >\362S\364>\035\223??e\354\330;\027\237\377>\303\222\017@LM\371\276X5\211\276\270\223u\277\345$J?\373x\303?\177\004\221\277{\215\004\276\214?M?\2657\003?\367\312K\277Hn\250>M\231x?\350\322d\277\273=Q>\310\010\374>K\243\342\276\331\322\231>\213\367S\275\027z\220\277%6\227>p.\304?r1\n\272\034T\264\277\226x\253>F\262\340\276ZNr>t6\375\277#\n\301?\346\025\024@j\235\t?\311y\205\276\200\242\241\277\207[w\277\370\023\353?\037f\265\277\263\323\002\277\304\035\005?\3108\033\277zu\001?U\2407?\225A\212?\212\242\276=\034\332:\277\314\370\307\276\\\376g\276\237KG\277\253\303\322\277G[L\277Glf\276\273\004\335>\006Yj?\313\312-\2763Ss\276\302\220\023?%\227\006\277\261;\207\276_N5?\025i\242\277\233B@\277\306i\307?\002+\031\277\265\177\226?L21>\210,I?bG.\275\033\346\"?\033_-\277\373\020\362\276!\273<\277\352\302\267>[P\354?d,!?t\221a>V\335n\276\335\377~\276pW\013\276TH\347\276E\272Z>\031\204\211\2765\272\202\276 \261\246\277\264\021\017\277f\322\246?\250\006\330\277k\326B\277w\001\r\276\217\227\034\3007\360A?E\210N>E\230\362\276\336H\254\277\343N\333\276\270\214\250>\342p\310\275\334*\356\277W\016\365>\304\230\230\277\242vD>7\231\343:D\271\037@\340\323W>\355q\212>\377\3400\277\031\032C\276\274H\321?fH8\277\026\005M?\302)\342>ES\014>7d\277\276\034\030\241\277`\254$?V\350\326?R\332\315\273\017\201\366\276\035\204\323>r#n\277\260\350n\276~\205l\276#\'a?\214f\342>m\307\256?A*\022\300\227\262\325=\227\315n\276(\337\371\276\036\000*?\277A\013?"
      }
    }
  }
}
node {
  name: "layer_0/bias/read"
  op: "Identity"
  input: "layer_0/bias"
  attr {
    key: "T"
    value {
      type: DT_FLOAT
    }
  }
  attr {
    key: "_class"
    value {
      list {
        s: "loc:@layer_0/bias"
      }
    }
  }
}
node {
  name: "layer_0/MatMul"
  op: "MatMul"
  input: "concat"
  input: "layer_0/matrix/read"
  attr {
    key: "T"
    value {
      type: DT_FLOAT
    }
  }
  attr {
    key: "transpose_a"
    value {
      b: false
    }
  }
  attr {
    key: "transpose_b"
    value {
      b: false
    }
  }
}
node {
  name: "layer_0/add"
  op: "Add"
  input: "layer_0/MatMul"
  input: "layer_0/bias/read"
  attr {
    key: "T"
    value {
      type: DT_FLOAT
    }
  }
}
node {
  name: "Tanh"
  op: "Tanh"
  input: "layer_0/add"
  attr {
    key: "T"
    value {
      type: DT_FLOAT
    }
  }
}
node {
  name: "layer_1/matrix"
  op: "Const"
  attr {
    key: "dtype"
    value {
      type: DT_FLOAT
    }
  }
  attr {
    key: "value"
    value {
      tensor {
        dtype: DT_FLOAT
        tensor_shape {
          dim {
            size: 200
          }
          dim {
            size: 200
          }
        }
        tensor_content: "\277K\025>\323|#\275\327\275\364<\262b\020\275mC\320\275.fZ>N\355&\274\337\r\204=\201g\227=\317\310\001\274\263\013l\275\254\330p=pg\234<\362\345\016=4%\202=\215\254Y=v<\023<\234\336\327\274\214\033\017\275\376O\225=\000jo\275\201q?\275\030\213a\274W\031\316\273\376\277q\275\023X\327=\200\2415=\242\266\310=\215\372A\274,\241\240\275\327\010\242=a\227k=\213\242\312\275\370\272\303\274\255\264\000\275\266\006\334\274\366\224\324\275W\032\231<\340\001\233<\302\177\014\275\326\244\215=-vk<-\212\013:1X\265<\036\n6\275p\030\301=!\274\221;AK\n\275\016\017\2458!%\250\275\360\220[=\207_\014\276\324Q.>\372\305\225\274\316\320$>\332%x=0\033\007>r!\243<\0219\245=\374\320\n\274\366)q<\331\212\177\275\253\223\213\274\327\031\246\274\r\031\336\274\237A\370\274/|f=\373j\202\275I\345\303<n\210c<\345>\345=+o\344=o\005s\274g7\263\275\301\212\303\274\305\314\252\275\341Tm=\251\357\307\2755\262e<\363\036\327<p\215\315=\316\216\311=e\362\222\274\231R\016\274*\247\371\274\247\261\n>Nf!;\016\224m\274{\360\352=\306}\335=\347a\373\275\243G\014=\270\364^\275\322\302\025\276g\370\221=\004\312\241\275[\312t\275\213\301Q\275\316\352\242=\023\240\000\275\300\235\347=r\313<\275\267\\\270=\270\334\203\273`\350]\275k[m\274+\361\013\275\375X\365=\304\007\302<~\025\245<&<0\275C\313q\275\353%\377<\251\031\344<z\367\036\275eP\356\274\376F0\274\360\375\031\275H\356\217=\264\351\221<\314~\237=\315\314\r>\360\371\323<\264\353\313\275\036\270+=\357@\352=):K\275\273\256\367<5\356\214=\016n\016;q\200\027=\332\031^\274>o[=\177\014\202\2739\376\244<\342\202\037\275\356Y\227\275\227\345\257=\257\314\222=\'\0370<L\342\t\275:\254\241\274\n\2670\275\305@]<\260S\007=\213\371\374\2735\333\022\275X3\304<]>\214=C\355\370\275.\"\215\274\\\036.\275q@o\274\035\013\300=\254\254\262<\272\360\035<\032I\240<\225V!\275\3541\036<\014m&\2750\366q\275\222\206\247=P*\021\276q\261\006<V\317\362=.\010$<\240W \275\332\335{\275\202W-=<Fo=MQ\356\274N\2632;\036\337\213=\3714\030<E.\246\275\244C\2008\211\342\375<\0263\314\274<E?\275\312\021\013:\t.\222\275kX\020<\370\235\301<\313\354\243<\032\367\'\274g0\304=\260\221G<\034\030S<\276\034O=1\306\014=H\315[\273\370\236\027\271\010\3037\275:0\013\275\3773\343\275\252\267\230\274\213\211\025\275\353NR:f\013\203\2754~\306\275E\201\024\274\'\277)>\265\361\216<,\326\270\274b\177V\276\316r%=\235d2\275:\224\020\275\375\351\r=\352\213K=\0202.\275M\355\000>\377\230\264=\323\341E<\257\305\247\274\331\350\312=\326\352\327=\361a\016<\306F\207\274)@k=M\302K\275o\342\320:>;\233=\233\324==p`T=\354\240\205\274\224\210&\276\342V\202=5\2725=D\003n\275Tk\014\275\236\177\017\274\336\254\t\275\335a\245=\035\332\226\274\224\360\333\275J\356t=\347\2055=9.\002\275\271lM\274\330\361\265\275\341D+\274E\033.=\331\013\216\275\253\227x<b\264\230=\200;2\274\205\213\232\275o\251\000=Y\372\303\275]\264\022=\253*\007>I\223\241=\231\016(=\344~\206=\250Z\037\275\252\261\021=\331b\377<\357i\301<\312\320,\275\245\211\032=f\014,=M\"\272;\261\315!\275K\177\206\274q\025\227:\302(7\274>\331\274\275\267\333Y\275\256\351\352;\261]C\274\332\034b\275\377\215\021<\023\340\000\276\023j\203\275f\376L\275)\346\334<0x\301\275S\314E=\352\302\321<\364\001\244<[#\365\275\301\327\"\276L\252L\275\'-\007=\016\221\311=Q\363\247=xdT=\330g\317=\321\217\260\275\217\2143\276~\337I=\261\227\213=+\274\354\274\340\030\202=\326\021\351=0\261L\275\016:\325=V\373\022\275\016\350\203\275\036\213i=\260%Z<l\365\264:\241\346\016>9fd\273\021\320[\275\251\022 \273\311A\221\274\213+\376<\311\023e=3\310\200\275\350\227B\275\375\306\252=\024a\275\274R:\374\274\214\010H=\356\302\300<S\365\322\275Q\214\r=\261\344*\275\245\230\210\275Gp\231\275:\277\341\275\013\225\003\276!\301u=\242\000\007=\211h,\274\221\366\250\274\002`\241=\017\004\257=\234P\314<;\036+\275\351\335\016<\005\331\257=\024\277\213=\205\010\257=\222W\256=mF\360=\314r\005=~eH=s\010\235=C=\001\273\331W\321\275=\204\034=\341\031\365\274Fx\237=\337K?\275=,\r=\250m\2449\345\303\017\276\277%\307\275Q,\241=M\256\276\275\2761\325\274nb!=\\\177h\274m8\233\275\305%\017\276Q<S\275\rmQ=\033\213\027\275\270[\316\274\nG\237\275)\363\235\275\032\365:=\241Z\240\274\210X7=\3423);\251`\326=\t`\337=(\372\202<\271\325e=mC\332<\232\340\213=QKW\273*\351H\274\355\265n<6\332\330<\3547j\275O\254\210=\373\210\002\272\373\377\236\275\231\032\216\274|qQ\274WL\367<A.\025\273\232\264\274\273{\310\204\274x[\325\274A\t\023<O\217\325=8\202R\274\302N\207\273\330\036\t=\251A\305\274\023\307\031=\212\371*=,\033\367\274\227K\033\276C\202\315\274KF\016<\004\360Q=\t\235h=\344\013g=\311\025\320\274\r\037\031=,&\010<\361\222\340=a\240a=\014\337\260=\230\006\256\275\326\014\001\276iU\215=\361\001\253;`\006\235<\356T\252=iD\007>\313\243O\274\212\203\272=\316\227\227\273\004\206\006=\372y;=\342\233\323\274*\'\307\2758\021\324=\224\316\257<\346\360\330<\372\347\333=\306\232\243=+\351\357<@\325\270\274\334\'\313\274\010i?=\357}\247\274(F\342<\"6\035\275\352lY<\203R\023=\'\321x\275\325P\221=\243X\224=J\013\235\273\177%\360\2748\315\343=\321`\025\275\327\010\265<\030\272!\275\352\210\256\275sH\030\274YT\200<bv\241\274\316\351\372;\203\222\337\274\026!\227;\365q\256=\235\222\200=\374\233\022=\306v\313<)\014\240;\n\027\243<\224\344\361<wg\223\275\260}\304<EH\222<^\304]=\306\351<\275o\025\022=\246\344\'\275\330\371\023\275\303\274\250=\316\033\022=\234I%=\006\306\363\274\264M\010\276C\004\364=\004\222\347=\r\017\333\275\025\376\007\275\013I%\275\267;\204=\276\374;= \372Z\276\\\245\354<3E\314=\363\260+=\3169N=\032q2\276\027\213 =\306\304\2449\252\320\233\275\226>\210<D\205Q\275m\256\020=\332/\201;$\270\234\275\204\343\001=\024\021\025\275[ g<\324\361\"<\\\035\265\275\005\311\275=\200\263\017\274=\331\307\275\354\353\206=j\307t\274Y\246;\275\360\326\013\275\027\2435;$\013\276;\353z\333=\013\262\231\2740\347\250;X:u=\006\260\334\275\030\035N<F\\\223=\255Z\321\274%A\013\276\373\305i<\325$C\275x\000\'\274\270i\001\276\360G\220\275X\367\220=\177\374u;X_8=\340\350\306\274\276\231\237<\335\223\300=\357\311^=v\t%\275:\221\316\274\340\365r=\017_\351=A\000f=^<\305<\003\252\366\275\346\316@=`\027+\274\243,\226=\260\033\267=I~,=\033\010~=\362\223q<\021\254\304<Z<5\275O\367\320<\363\274\255\275\331A\026\276\201\337\362\272D\267Y>\305\360\376=\004\366\264\274\213\342\001>\246C7\275\305Q\355\274K\222O\275\303\361\213<=\236\177\275\026\036\224\275g\306\272=\355\357\031\272\211\315m<oa\216\275\366\367\222\275\344\327\030=\377*\016=\347\320\023\2753\340\\=u\231\270\274\312Wt<\364M\345\275\324\017;<?\315\223\273\230\177\321=?\177\314\275\335c\264\2752]\321\275\342\376\277<\206r\264=\001f\233\275\242\240\'=\260\366j\274\376Ew=\357\305\023\274+\234/>\231\n\370<\213\"n=\214\245Y; \351\013\275\324\024#=K\307\276<\356_\251<\335\210\231\275\002\303$=\370\373-=\377\0343=\232\263\002<7j\214<\266C\271=\372\240r=l+,\275\2112\270=7\030\212=\034\3676\275\322\000\335<_`\323\274\343.\373<X\016\254=)\335\001\273\"$q\275\333\200\317\275dH\010=7\313,\273\035^.\273\367\354\266\274\221z0=\235\365f=%\221\275=1#\243\274 %\241<\255\334\014\275\313m\334\274\233\rX\275Y=i=\312jl:\243\033\352\274\025{\r>\254\233,>o\366\034\275~\000\325=\215\314\360\274\260\016Y=\031e\037=q\032R<Kk\230=\220\000\326;\300\202\004=\301>_\275\221\272\212=\260\226\230=\204\\\271\275\312e\324=\356I\'<\215\033\354\275\320\215\221<1\300\213;?\235\013\275\313\254\355\274y\365\206\274K\2022\276\277\250\333\274O\373D=\370\004y\275\017\025\271=\326y\271\275\262)\003=\333\t\025\276\306\303\007>f~d\275fW\352\274\267\347\346\274aZ^\275R\231\001=\256\367n<\232\346A=\030\335#=FZD\276\356\333\357<\r\374\250\274CDQ=\016Tz\275BB\247=W\357]<\333g\017<%\366\360\274\"b#=d\341\304\275\262\206O<\026>.=\376\355~=\214\327\202<o2D\275\230\361P>\307f\233=\317\366\005\275\217\251\261\274\277:i=\234\321\213<\346\376\272=\352$\354\274+\373\n>\000F*=N\373\235\275(\r\304=\256\2227\275E{\253\275\202\'\023\2758\000\307:\231\037\000;T\027\214=\007r\033=$\250)\275z\304\217\274,9><\3029\205\274\323u]\274%d\252\275\013\235V<H<G=\313\337\273\275p\232\000\276u\356\020>\213\363n;BcZ;\374\241\361<8\371\n<\302H7;\371,*=|\"0=\320\270\277=\3115\365;<\241@=rm)=;\027+>\nJ\254=\205\372\301\274\237\356}=\365\360\335<&\236\244=\014\331\000<k\330\277\275e#p<+\277\227=\002\036\301= j\377=@\254\373\274\005b\256=\377\203\264;M\270N\275\020\341H\273\211]\004>i;Z=\033\322\221\274(\250\211\275\361(\312\274vE\235\275\345\347\305=@\357W=M\222J=K\264P=\351t\014=\262\332\336\275\013\345\261=w]5\27617\337\273\310\321\010\275?,]\275\346$>\2757\323\333\275\354\030\273\275f\\%\274\352\347\256<\374l.=\207\"\271=[\225\210<M\331\"\276\307\352\230\273w\343M\275jz\313=R\346\205\275f\304\255\275\277\370\022=\303\276\357\274\263~\255=\303\341\270\275$w[\275\324u\333\275\306{$<\325]D=\034R\241\275\014\\E\275&F\307\275\302r\300;\337`~\275\311K\245=\037ue=61\337=\302w\302\274Av4<\005Y\276\274\0017\207\275t\301\345=yR\"<\231\351+\276\327\315>=\361\306$=BTR\274\202\021\037\275\336\352\223;\016\020\247=\004H,;\326\326\251\273W\3004=\020\227B=I\274s\275_\224}\274\352\260\364<:(\352\274\202S`\273={\262=\367i\217\273^9\202\273=I\306\275M\201S;4\010N\273F\271\"\275\202/C=\341\020x\272\315\315\200:Y\001\017\271\tr\001\274\3335\016<\"=\263\274\224\nn\275\353\365\007=\335\036J<\356\255\356\274r\227\304\274\312,-=8\265J\275pQ\031=\322^\212=\260\016\372=\311\206\007\276\322;\241=\255\355\244\275e\263\375\272\324\375B\272\016\201\\\275\3749\n\275b\037\035<\017y\211\275\306\325\376<\235-c=\355\210\024\2757\333\201;\306\367\223<\241=4=e\n\265\275\277\230$\275\367D7\275\2760\t\275\211,\034=\270\362w\275\000Z\335;\267\247\344\275\006\277w=\306v\204<8[\350\274\"\204\010\276\'~\253=j\033\267=t\014\310\275\001,\306<\374\216\363:%\346]<\031<\327=\227\032$=g\023\203=\337\031\'\275\366\340\265<ZZ.<8\242\267\274\314m\276\274\213w\222\275J \246\275x\037\035<p.\210\275\000p\233<u\331\274\275\3007e=\342X\021\275le\215\275j2\200\274\214\361\023\274\203\256y<w\356\013\276\215\360\021=\010\232\010=\262\204\006=N\357%\273Vu\210\273{\255\320\274\221\322\201\275\016\036\216\274E9\361<\336R\007\275\343kl\273O[\020=\005,\\\275\333\220\332=\2448~\275~q\023\276k/\262<\335J\372<\004\275\002>R\026\036;Fr\225=\373\362\307\275\220a\212\274\nnE=\214\273\246\275\277\037)\274\355/\260\274,5\346<\210\\\225=\345\327\030<\212\201v\274$&\237=\341\311\363<\232x\224\274N\240\337\274\343f\352<K\265\\\275\004\342w\275UgV=P\270\246\275t\234\236=`]\215\275;\3374<f\315\201\2732\\T=)]\246\273*p#\275\336\202\300\274\020\210\034\275\221z\177\275\276\367Q=,\001\033\275\023o\352\274t\205\"\274\314\211\234\274\265Y\355\274\255\252\210=:\345-\275\r]q=Hf\235;X{C<\316\373\222;\233XC\274\3066\214\275U\261g<\200\223\214=\026r\322\274j\343\300<\224\353&=\264=\n=\337=E=\350\254\307=\202\033\237=\302b\327\273-\373\322<J\316W=}\340i\275\227_\000\276L\210\020\275W\020\235\275\257~\252\274\327\227\035\275QtB\274\205\371\030=\323\3653\275[\236e\275\257\265\256<\263c\232=\363\237\256=\3240#>g\300\260;7I1\276\324\261.=\n\263\n\275\010F\222=\372\215\211\275e\354*\275\'\033^<+\274\335<o\035\343=*\271\275<o\354\243\274H,Y\275\221\247\242<\027\036\260\275\203~`\275f\245[=(\'A\275\321\335\210\275\350\220-=\352_\r=\025\211\002=\223c\261\275\316\214\364\275\373 %=;A\347=\013\262\316=\320\242\201>\235 \240=Z[\n>4v\007\275\361e@\274\367D\347\274\331wr=\323\243\354<\007\353\363=\013\000\235\275\220|\037>5\030+=\210\234r\275ez*=_,\007=3\316\252=\332\200j\274`\2103\276~\016.<\245\nJ\275\373\025\207<\2300\030\276\324Y\273=\362)\244\275|\267\371=#\346\246>D\257\200\2744\302\347\275K\225\226=Cw?\275\371\211\221\2753|\003\277\367\031\226=\017\355\365<\3736(\275ZZ7>\320\204\013\274@|\247=\342Qy\274\315\220E=lI\233\275z\033\230\275b\244\030<\265+\217=$\036j\275w{\272=<\025\371\2744\305\270=\\M\312<\233C\312=\327\342\210\2748:\234=\315\002\210>[\203\301=Ef\002=\000\253d>\222ka=\305,\310;DS\325;\312\3221=Q>b\275\374\205\010=\325\374X\275\213\361\366\275/&\322=r\203:=\253q\227\275k\314\320<\007\3208\275PQ\312:~e\325\275\331\353~\275\014(\303\275\"\372\024>f|b\272q\n\276<\210a\"\276\004\227#\275\026\3779=A\036\206\275\344\rk\274k\337i=p\242\037\275c\210,\275\203AG=\014\233\345=A\t\206\275\233Q\353<$p\342\274\177\227\374\274\352(\223=\224z1\276\007G\272\275\271\353\267=\2110\222;(\3501>\355o\236\273\034.1>\341rc;\373T\240=y\374\376<\'\374\375:\241\013$=\353\253\306\275\2666\256=\345\007\032\275\361\320\255\275\1772\242\275\200\026\220\2753\301\242<\210\226p:\203\022\210\276*\262\313\274\257\345\220=\314\233\261\275\241\333\243>\344\244\365\275u=\315\275A#\304\275\217M\222<\362]\304=\377u\243;|\217\350\272\010l\374=\233e\222\274J\360\335\275\225\253\t\275\006\206\202=\177\326\243=\324e\233=\2701\326\274\271\271M\277\331\271\246;\206J\310<|\221\003>\350\\@=\304\321b\275Ax\316\274a\313\004=\347c\233=\323\302j=\030/\242\2758\354\260=?{\027\276\033\367\211\276X%@>\230]\234=\3751\313<A\374\203=\375\005t\275\252\331\304=\372\312\337\275k^\240\274\201\034B=o\225\002>\3530\276\2738\341I\274\377(\232<\336\006\360<\375\322n=\316\215|\2750~\006\276\253\3055\276\331\266\265\275\255h\361<i\264\207\275\362\255\357<\022z3=\317\264\226=j\347b\275n\007\323<\340\342A=8\014\301<\303\345\210<7\310\316=Gr\020\275\211t\240<\223\205!\275\207\256\245<\027a2=R\344\013>\365\303l>\332\247\361<\257\\\313=U,\006\276#\226\370\275\t\374\362<\237\272e\275\345D\337\275}u\325\276\215\006P\273`y\236\275\004w\365\273\237\337T\276\001\364\000\276\266F\370;q\021p\275\343\245)<\227K\234<\026#\353=\353\353\000>\342y\364<\027\027\037>{\356\n\275\301\026:\275\025}\225\273;\345H=2hZ\274\np\265\273\t\244\253=\375L\000\275\227bE\275\237\'\254\275Z\000\263\274\243\340\024\275CL\370=\376\3518=\032*B\274\336\233E\275Ion<\361\342\034=\267\225\352\275\r\263\036=\306<\000=w\236\371;\210$m>\036\272{=qE\250\275\335\255\210\275\272y\262\275Y9\217\274\202\333[\276\023I9<\006m\215<\025\207\203;\300\316\321<~\212\262;\030\017\005=\344\252K\275\301\000\240=\251.\245\274\334\037\245\275\035\303D<\316\316\364<2\005B;M\374\277\274b\201\264=&U\311;\033\275\342\274\320\372E=u\235.=R\371a=|\300\313<6\2371;MU\324=\274\244\374<\371\030\347\274\310\361\201<\271\362\217\274\001\245\267\275\020\346i\275z\022\201\275\361P*=6\010\264<\230\336\204=q\031%;V\362\367=%O\026\273\316\201\251=\204\202\030\275@}\305<:\005\334\275\005!\366\2748\350\340\273<+3\275\260\325\251\274g\t\n\276_\245\000;\273\231\202\274\252w\260\275B\365\303;\312&-=5\337\377\275\245\034H\274j\013\224=\302\305\010=\321\024\r=\335\250\r\273\250\332\262<\323\371,\275\232\254\310<5\023\201\274\3563\211<\3074\000>E\000\022=U\363(\275\230C\356\275\313\007\345\274j\302\212\273\365\376)=K\251Q<r\033b\275Ys\366=\245\025\334\275\r\240\221=\\i.\275\252G\021<\362\027\277\275)\312\003>\006\331\213\275\301\336\336\275\350\0038\2755\'\3768,o\300\275\350\343\032\2765\225\301=\005\262\206\275\373\200\216\275L\003\217\275|\032\034<Z\026\321;\231Z\244<\202\202\276\275\036\213<=\031\332$\276\036P\300<&\324D;J\'\211\275\010\375M\274\273U%\275T4X\274[\351\240\276pM\022=\235\271m\275\376tr<\306F)\275K\340\233\2743\n\263\274H\260\234<\333g\300\274\033DN\273\340\254M\275\361\3341;\033\036}<E\266&\275w\255E\274>~\320=C\260\020\275~\305\366<q2\242\274\365\351\030\275\332qN=\21642=[CL\274\206 \337<\355\213\354\274\336\354\307;\225P\214;\232-\320\275\316;y=\244\005\273\275\013\233\034\275\253x\203\274\235;/\275\303!\032=:\034\203\275\254\202\221<\332\027\364\275\260o\221;\211\326\235\275\332^3=\3556\274=\235Q\334\274\024\225\312:\334\243\252<R\354\224\275\244\255_=\311\037C<\315\304\265<E\372\201<\331\231\255=\210\347\260=|\356{=\355\370\206=\224\340\236\275\217\022\357<\372A\310<a\027\372<\r\241\223\274\330&\242\275\273R\002>\3541q\275_\236\300<*\242\332\275g\251\377=.\245\014\275\246\327|<@\317!\276W7\236\274\205rC\275\261ft=\355\342\266<\030\205\032>X\257\270<S\323\200;\273\251l\274L\\\026\275\000)\021\275\005Z\270=\254\215\330\274\263\\a\275\005&\371<\235\250\240\275\246\223\233\275\033\325\263<z\013\227=\226\213\233=\313Y\274\275\327]\314\275 `t=\323z\357<-\237$<\344\017\235<!\354\252<\361x=\275U\217\275\274\304\321\310=VBT<z\367\003=\273\313\"<\226\345G\273\371\312\370<\370\031i\275Q\314\303<\007ee\275\267v\021\275de\210\275\002\217\277=p\221Q=\325+I\273\267\376Y\274\204Z\r=\340\235Z\275\233f\204=\303M\270<\305\177$\275)\343\272\273\t\021\237=rh\027>\271t\'=C\326O\275\302(\212\275\031\032\203\274o\020\212<\215j\000>\361\320\355<\316\022\240=2E\272<O\000\256\274I/\036;\325\"\240<\262\226_\2743\277\305=?\252\316<\246\362\316=\261\322\304=O\005v\273\235\032\265<\'\302\233\274M\335\252\273\201Td\274\277\320\257\274\312\023\230\273\033\352\361\274\241\360f\275\363^\361=[\340\316\2758m\032\275~\365\247=\225\242w;e\300!=7S\006\273\342Kc\275U\336\277=\002\311\013\2769\312\320\275\037\345\242\275SS\315\274>\315f=\325\312+=\330M\251\275\\L\356\275\330\360\332\275\206,\233=\005\226\325\274\360D\236\275\023\001\267=\252&\211\274\263\'\017\276 X\345<\002\305\221<d\344\374\274\232\242\033>\"\371P\274\204\303\031\275St^\275\002M\026\2755\\\271\275\342\253]\275/\337\213\274\272\370\310=7@\343;\353x\233\274\207\247\277\273\337\355r\275t\025\275\274\020Q3;.\\\261=\275h*\275\0001.=\271\352&=\303\223\214=\307\301\251;\025\271\321\275\246\253\314\275Z\232\022\275]\334\362\273F\013\272\274\3013$;<)\254\273\320\304\261\274\375H\023=n0\332\274x\226\345\275\223\320\230\275_\361!<*p\244\27507\226\275\232+\027=n\225\204=\346\366\002\275\031\r\n=\n\212\256<\310\264\232\275!3\253\275?\364u\275\353\222\021\275\nb\257=hu,\274\347\002<\274\032v\313<i\034\034\275\315\006\363< \343\262=\010R\337\274\310\226\227\274P\225m;>C\"=<\243\203\275\363\347X\275\316\340\357\275\304\016%=4\317\'=O\272\320\275\324\025.\2757\017\360\275\267Md=\017\262\366\275\352\tL<\271j;\274Uj\362<\323ok\275B.\';x\347\033<\202\345\211=\226\037H\274IX\202\275l\253D=^f\311\275G9\022\274\363\033\344=\337\250\305\273\213\004$=\237\273\031\275\202g+\275\220\345P\273:\260\202\2750\265\211\275S\315\004\274\266\277\007\275\010\232\310\274\031o\\\274\247\021a=\010\006\226\274\243kd=ACK<\264\344\"<]\345w=\335\"7=\251B4=\260z\253\274Tx\004=r\275\002\275\377\257\177\275\351\027O=\006\315!\275\237@\250=\364\277\201=n\313\306<\356\266==\227\354\022=D\220\022\275\260~y=6<59\356\350\227=.v\232;\330q[=\346\324\177=&\001)<m%\027=b\224\261\274f\t\t\275\304\007\243<\227\322\371\275+b\272=4\'\204<Q6U<\nm\023=\377\227\301\274\307\006\035\275\355\310\217\274f\352\323\275\3341\024<\356\215&<\360\027T\275\t\251\201=N]\213\275G\251\210=#\211\367\275\013\024\303<\304\370\261\275\364\014(\275\227\326\354;\346\004K=\037d\336<\205\020\312=fk\245<\230M\215\275\004S\223<\353\203&\275\212>\225=\272\325D\275A\367\006\275\tl\326\274\026=\256=~\033\201\275;\201u\273l\315\364<\246\261j;\314gO\274\225\257K<\314\022\024<\354%\037=\255Z\036\274\334\317\204;\332XY\275J\351\342\274r\241\213<+\022\330\274bR\263\275\300\036\013\275\376\215\003\272\251\360\010\276\267\2020\275\"\304\021\273^\016\r\276\256\312\352<lAC\275\037\325\036\275\253\225;=g\037V\274\001i\022>K\366\221\274XJ\203\275\365\317\277;\362k\275<\375\373\274\274{\032b=\372{\361\274\017\007\363\274\023\224\'=6\341\306\273t\031\241\275\371\002\261=\273s\230<\0021\256<xi\307=e|\333<xS\210\275l\265\n<\t\233\251=C\nJ=T3\202\274\261\240\327\274\256\250\366\275W]\205\2747\" >\003\255@=\020\0362=\031i\263=H\245:\275\235\334\237=\310]m\275ba\234\275\016J\211\274\244\000\250<\322dS\275\014\035\035=\300Ea\275\013\265\027<\025\313\366\272\267m\224=\214C\256\275x\365\247\274\177]\343\274\323*g\2758X\016=\037\320-\273\025^W\274\356\204=\275\367\343c\274\261E\030\275\0014\267\274\263\017\016=\262\251\277=2\233!<\ny\221=t+u\275\373\006\232\2733\265\277:\204\221_<\026\2129<5\244p=\351\365H=.8\020=\007L\221\275A\360\276\275\321\r\271<\325p\237<\303c\"\274I\323\r\275%\256\266\274X}\377\274\312\304\265=\2520\244\275Ot\007\275p\357\330:\355\3156=\314\251\263=\250.\241\274\tU\n\275n\003\253\274\274(\001>W\264)\275\004\t\236=6j\314=\262\026\250\274\256\332\266=x\233$=\2549\251=\347\236\005<\250\335Y:\300\2621<\320\326!\274\274\310\027=KJ\375:\232\235x\275\000\334\027;\3170\013\275[\315H\275\3247)\276rwF<\343\007\315;\000r\342=\340Cc\275\302\002d\275\345A;;\017\007L\275\270\204D\275\363\302\022:\345\214+=\335\0351\275\rK\222=\253\225A\275Y\361s=\223\356y>;D\335=t\342\221=\312\360\216\275\272@!\275\217\312\025=%\356\032\275\372J\254\273<\324\240=\357\300\361=\034\273K=K\205|<\330\305\334=\004\355(=\343\315\202=\311\204@=\205p4=\202\211\263<\342\324\022<ZL\030\276\306@:\275\207@\207=W\\\240=I\227\272\2755\325\267\275\224f \275\022\354\304\274\235.\177\275\373\206V=\375qS=,\237E=\246\265{=Z\nC\2750I\177\274\216\374\335\275\237\222\277<e\362\333\275C\355\275<?\224\034\275\260\240\242=\224po\2742\223$\273Z\356{\275\033G\310\272\314\235]\271\302\260\206\275\365\313\347<?\000\t<f\215/>\246\351-=\020\014\212\275F\224\333\274\302\027\'=}\274\333<\'\217\272\274\244m{\275z\005q\275\327D\245=p\341\302\273\322P\346\275\337\211\304\2759\215\351\275\323\212\371=>\023\260\273:q\256\274\201\3218<\351\207w;{5*\273\241\207\014\275\034\037i=\202\347#\275\202@\374<\017m\374\274P\244\276<6N\357\275\214~j\274L\344\331<\305\356\231\273\013\256 =C\326\r\276e\211:\274\242\210J=\\\322L=\013*T=\255\306M=\267_\217\275\255-\212=\241\\\215=\325\3230\275\340\3646\275\227\345\007\274\213m\004=\310\312\250=O\007\241\275\222\364\322\275\2740\227=\240\340$=\346\241\211<\347\212\251\274\310\252e=\222\"y\274\317>[\275\364\262\253=\353\026\250\274\367h\201\275\356\325\274\273\226\342\302<\345\274\341\267\330\006\362<\205!a<\326\374\307=\275r8\275\221\025F<gD\t=\366\271N\275sh8\274^Z9=\277\262|=l\245\357<3Z\031=v\253/=\253#\224\274\004\343(=\343\372\310\273\344^\275\274\227\265\215\274\370\344\n=\014\363%\275\277$\355:\253\325\204\275\203\231\216\275\001`\312\275c\345\252=\354\377\303\275H\237\275\275Y\355\202=\342i\302=\225w\262<R=v\275|\004g\275\376\2344=\211\234\327\273x\227e=\227\260\273<\307` =\241\357\365=\230\347M<\014\220.>B-~=\225\360\260<\366\357\000=\332l\211\274\007\322\205\274\225P;\274D\335\223\274\2257\017<\t\350\370\274\2746\313<\272\270\225=i\231W=\312\360\035\273\204\213k\275[\220\356\274\tw\017>\022<\236=\206\255\342\274\334\216a\275_\252@\275\021\037\215<RP\341<^\327\246=7\310#\275F\206\303=z\376?\274\201\327\025;\377\"\r>\247\305c=\377\307n\275?g\234<\204\326\310\275\216\030\014=\216\364\216\275\221\214\000>(k\212\274l\3122<\255\347\250\275\354M\374;\"\372\n=p\214\035;\214;\273=sl1>\353\030\022\275\237\253\'><\"]\275\362-\036\275s4\332\275-+\213\275\317\302\"={\"H=\207-\310\275:O\311\274\032\274\211<h\001\366=\030\323\323\274iqT\275\367I?>\001G<>\246\257*\2742\300\215;\314\361\215=B\371\204=g\252\246<\203\026\231<\377U\247\275-w*\274`0\326=\263\276x=J\202v\275\320\225z\275\375N\310\274@}\367\2748\352\216<\006\002\233\275\010\230&=\034\224\350\274(\325\003\274q\355\354\275\311\305S\274\022\2653=\217,\206=\263\337E>\000\317)=3T\342\275l\273\211\274\027a\247\2754\251\233\274\211/\021\276\352\257\251\275\311\257\n\275\310\315\212\274\016\001\202\275QO\366\275\361\306\242\275R\361\226\275=\025\253;\274\3012\275;\244\242\275,\006*=t\377\021=\022#\316\275:\312\255\275\341?K=\327\3110\275\022\220\265=\211\330\262\274\257\320\202=\366,\337\275\362\271\210=\247\010\\\275!\004G=\313{\027=\213E\216<\331\342\240=M,\275\274\247\331\315\275\262?Y\275Rp\247\275\361\314\366=k\243&\276\362\321@=\202#\210\275\264\t\271\273-\211\256=i\037\313<^} =Y8\262\275Rj\256={D\245\275mn!\275\005\014\341\275\221\306\207<\017J\023\274\025it<\210\247\237\275\001\254\241;\334^\255\274%\375\315=\037Ww<\327\217\360<\001\220\356<\034V\313\274\254G\r\275\375\322\277\274\230\210Q<\256Lq=\232\020P\275\232\354&\275q\204f\273\035!}<\014\310H=J\231\326<M\310\260=\255u\353=\334\200]\2742\027\236=\370\033i=\314\245\357\275VN\300=\004R\233\275\340\355]\273\220\332\003=\373\021\017=\210\000\335\273\036\020\364\274\37501\276b\264D\275aE,>\370\355\201\276\344J}\275P\224\217\275>}2=\221t!>\033w]\274\275+\262\275\245\032\315\274\3766\204<\305O\305=#\203\024\275\202\025b\274\322+P<x\200\204<\225\0234\275f\235^\275l>\232\275\342{\300\274?\034\266\2751\237\350\275\036\337\267\275\2528\253=\2754\253=\000\032\264<\314\271\000\275\021\354\371\275\354n\000=N\351\375<M\376\234=p\377\274\275\363-H=\"M\255\274(S\203\275L|\237\275S\253\023<%JA<4wj\274\317\261\220=\\w\037>\022\n\241\275\244h-\275?=\234<F?\032=\243k\253\275\022E\312<\215H[\273\220\273\342\273e&\221=\237\236\t\275\221E\n=u\327-\274\343\245\014\273-\226\344<\2561\347<E\001M\275\332\037\002\275\2152\320=\350\367\333\275\377\216\263\272q\277\342<N\032\355:\212\210\226=\306\377\256:\004h\034\275\366>_\275\345\037\252\273\202\366\333\2731\373\306=\035\243t\274\266\366e=\026\344\335\274\rx\031>Z\376\275\275 )\001\275\032_\350<\257\366^=\277t\273\274C\211\005\276\261\267\024\275\266\300k\274\244]Q\275\324\270\020\276|\231\343<5\3750\275\336*\207=\350\213\216=\007X\003\275^\323?\275\301\022\224;\217\302\234\275\203I\002\274\337\207\350<\035I\226=\245\266x=\212\274\020>^\247\314\274c\201\213=\264\244z=x\245\316\272\303c~\274yg\003\272\203QK<pS\274=wc\303<\244\244\212<c\224j=Q\263$=u\223\016=\212.\243=>\273+\276\234i\027\275Ci8=l\335r\272\244z\013\275u\366\n<1:&\276rp\242\275z\303r=\260P\254\274Z\322\214\275\355P\307;\013P\206\274_\330\251=<\267/=h\020K=9\337R\275\352\320\226=\214\033W\275\327\3158=_\263*=\244\341\314<B7\212=\245\004\242\275\\G\256\273\332}\214<\3515\036\275\020C\027\275\014\245\036=\252[\006\275s\202%\275~\251\370\275%\377S=\000\203\344=\001\035B\274\330|7\275\"\260\025=~u\225=\335d\275\274\235\2209=\223a\002>\236f;\275\205x\267<\031\332\244<\306\230b\275\005\216B\274;\013\255<Cr\316\274H\346N\275\254\325\227\275W\371\006>kv_=\035\246\205=#\257\034\274\340[$>\314\211\021<dWn<I/\210\275n\376\000=&U\312:\333\323o=\252\324\247\274Y~s=[\347\217\274\316)I\276\204\242\247\272q\360r;\320X\016\274gJ\336<\031g\305=\363\336u<\335,\271=\0230z\275\362\365\221\275\301\357\360<\326`\020=w\256\204;`2\207\275\344\276&\274\232\225\370\273\023\340*\2760\355\212\275\215\373\355=\302:6=\261\026\366<\300<O\275x=5=`\364[=Zt\357<\334+\277\2750\"H\274\014Q\317\2746g\031\275\372\271\203\274i8\242\274\301\004G\275\210vd=Q\t\020\276\030~\366<9\204L=\3037\217\274\271\004T\275,&7<\235\030\206<>V\212<*\236\371\274\'\350h\275N\303\273<\370^\244\275\3557#=\226\030\325=\273F\363<\336\001K\275\n\256\333\273\257M\203=\'\212\323<^:N=o\3568\275\307\217\316\274u\202\306<\225\326]\275\356\002m=\272\330\351\274|F\240\275\261\303\321\275\215\236\026<\316l\025<\216b\337;=4\330<\360\202\217\275X\024\3678]G\320\273U|m<\270h\n\276\314\0228\275\037\351x\275L\356\276\274\302\370t<\277\211\222<\327He=\334\365\220\275y\303\373\273\013D\211=\261\212\305;\202r\027\275\217\345X=\330\374\332<\327t\346=m\324x;\3763\213\274{j\232\275d\211e=\263}\270<\330\0019\275\2061H\275\r\324\302<\236\251\017\2759\227\270<{|\005=+\t\372\274\312`\030\276\212\217\357\274}\273\342;\371l\206=\353\376\230<\207\347^=\225\3729\273\324l\373\273R~\000=\355\242\177=L4\265=!\323\310;\352\346\224\275\364\253\032\275 >\223=\r\204\244\275\032\233:\275\223\310#\274u\361C<)\027T\274x\363\372\274\313\306\211\274<\302%\275\220\225\337<\267\024\276<\353\311\361\272$?\020\274%7\304<>\337\264\275\343x\007>\000\207z=/}\013=M\227\206=X\355?\275\036\246n\275\033np\275\332\373\r\275\264\314\336<\265\317e\273\332\201\361\273\332d6\274\220k8=\030\024\217=\024\374\303\275\016\241\351\274VBm=3I\205\275\031s\361=vo\314\275d\254+\275I\242\025=\277g\253\274\337\277\330\273d\272\375\274l\372_=\250\345\345\274\326e\224;\233\357c=\336\226\266<\377\365\347=.\177\210\274z\242\217\274\013\261q<\023`\211\275\326\241e\2747\254\006\275w\022$\275\037\301\\\275\030\345\331<\'\333\226<=s\236<\246\210\031\275\325jY=T\004f\275=\314\356\274IW\216<\2304\367\273\303\027X=\'\216a;Ff6\275\243Z%<^R\270\273\216l7<\265\303\303\274\3353,<\257\234\314\275\263\036>\275,\2157\2757Rc=\313r\263=\365\312\336<h\242\030\275Xy\000=\2763\177\274b\030\346=M7\362<M\335\332\275x\377\005\275\306\025\344\274\243O\251<\2323\n:\035\233\245=\271<\031<5d\351\274\220\r\322;\306\201\003=\327\205\227=\303\362\232\275cA\371\2735p\002=\020\336M=_-\247\274\263\345\356\274\210\302\224<Z%\031=pv\352;\327\030h\275\t\n\221=\243\252\263=W]\223<\371\221Z>\006D\263\275\247\277\261\275]\177\376\274\344\020\332\272\226\272>\275\202\303\370\274\244\313J\275>\205\n\276<\334\313<]q3=v\315\220\275\304\204I<\001o\\<\312\006K=4\352\301<@\021\277:\277i\032>\226\316\272=m=\027;\341\0132\276L\304\346\273\243F\277\274\330\231\022>\232\340\210=K\234\307\274\3713\323\274\354\275\213=@\360\314=n9\310\271\272C\320\272\260\340)>h\241\201\275#\237\202\275s\004\324<\013^|8m\032\272:\242\362\010;\234\374|\275B\244_=\270Y\217\274\202r\365=\302\256\226\275\251\326\251=\343n\034=Zo\t\275|\336E\275_\303I=;\310:\274P\016C=\226\277\245\274~C\034\275n\337M\275\211\211#\274T\374\365\275\301\007\305\274\341\035y\275\213\272\243=V\311\224=Yj\331=q\272\262\275\351\261\022=\366\273\272\274\006[\030=\347\206\220=\031\177\215<\"!\212<\346\342\204\275.5e=\\s\215\270|\244s=\325\244\007\276\220;\024\275\223\366\344\274oP\225=P\177\356\275\346on=W\037\273=\253J\177\274\244\t\216=\257\275\220\274\263\3151>z\232\340\275\032\223\000=\262\304\271<s\250\356\274\370H\377<\354x\230\274\260\324B=2\217`\275\t(\303\275\003VJ=m\312\225<\221\032\216\275\t\204-\276aU\355=\007\'`=\027\344\364\273\327\027\213\274U\245\265=a\020\026\276s\212\006=\324\005\335\275i\323*\273\275\371\347\275S\331\374=(\377\013>>\202\232<\273c\333\273\020\376\302;\274\276\330=\353\242|=\355\272\211=KQ\347=\207.\003>W\025,\275\2221\014\274(\316\231=\303\025\267\273\315\254B\275u\232\253\276i\232Z=FvP<\222D\324\275^^\023\275L!\313\274\374\302\n=\257\254\265<\36001\275\031\247x\275\004\210*=\370\203\364<\323\337\313;*n\233=~|\262\274r\251\'=\306Q\325<w\252\206<\236z\254\275\246\340\235=\312=\246\272\231\222a\275Z\306\333<\033\272\231\275\301\372\273<W\3520\274@f\025<\203\342\330\274s(\337=\363l\352\274\363\027]=\256wv>\336\302\">\366\031*\2719\232D\275=\036\013\275\216\342F\275\337\tZ=\212\247\201=\367\010\277<\344\337\002=}\001\263\275*\020\213\274\"\377\247<\211$\362=\216\307N\275\302\304\267:\010\375\363<\321\214\313\2742.\217\275\215{\244\272h;\013\275jQ\037=oLt=\004\253R>\341\306G\274n\013#\275\326\267\002<\206\254\020=\200\027\234=\032\351\030>\006\022\334\274\223\371)=\006\203\213\275s\271\310\274S\302\237;}\314\226\275\303\312\276<?i)\274\261\210#\275F\256\214\275\201\2473=O\326\227<.\030i\275\025\237Q>[\326\034>\245\246\255\275\212\000\t\275\266\303\204\275\213&$\274\2533\255;\230?\013>\270\250^=\335T1>\340-\214\275\342\213\253\275\007\'\354\274\371ZT\2755\370\326\273\361P\326;\256z\025\276\222\264\305\275\307/\345<5\314\244=\344&\215=\343\032)\275;\331<\275\007GA\276\254Y\267=\262Z\033= \250\246\2740\254\277=\331}\363<\367\336Z=a\274\212\275\030\2727\274\342\207V=j\272\237=\305U\332=\206\331\234\274G\376\263<\201\375\264=\n\273\232\274\320T.=\313\227\246\275\n\251&\275\327\317\322<\035<M=\367\374\324<*\3443\274\221\235\302\275\330\231H=\241-\334\275\370\2603\276\36256\275\340\013)=!2l\275H#\272=\034\242!\275\252\372\035\276\245\367C\276k\360\226\275,I\240\274\2337\262\274\003\tI<\341P4=\037\327\237:%\243\213=\033A\013<\357\'-<\r\312\303\275|\"\215=H\243z=\354\310\300\273\327\336\330\275\326\n\311<9\370\202\275\306Y\217\274\017\320\307<,\220\253<\367<\007=\370c)\275=\026\340\274%\345\203=\303\230O\273\244\237\377\273\017\273\270<D\277\363\274\372x\255:\332x@>\004Za=\355\376\231\275\334\273\275\274\352\230\301<\001\023?=\345\256A<\033]\213\273\016\335p\275P\237#\276\273\206\240;\324\237\225\275\357\000\275\275\354\253\014\2768*\217\275D\200]<\307@\322=\240p\200\275\3450y\275a\311S\275e@\336\2753\313\210\274U\246r\275S;\342=?ho\275V\356\"=\375\na\274[\000O\275\207]$\275\251\251\305=\370\275y\275\247\3772\274\242!\031\275h\270\327<\346\262\332\274\035]G\272\250\014\001\275C\272c=\252u\"=\"\365\025=\234\334\255\275#\257O\275\2156\203=\025dO=\350 \364<\246\333=\275\317\361\230=m%\033\275\215\325\221\275\315\265|=\334\365H\274}\226^=na\324<\023\225\002<\374\004v=&\007\177\273\347O\200<v\215\007\2758\344\232=g\347\201==\374L=\302k><\236\236\026=\246\272\271\274\244\225\376=\013\252\017=\223\334\237=\212\230\366\274\212\017G\275\'C/=\t.?=\021\273\322\272f\1774\275;m\365\274\277i\242;\377M\344\275z\344?\275\347Q{;\324\024\244\273\301\241N<\252\251)=\370\027\236\274\253\350\343<(\316r=\247\215\004\276\241\014\317\275=e\253\275\323\025\376<\245B\300\274\033\276\246\274\266G\220=\311\212?<\362\334\032\275l\361S\275\205k\257\275\224\220\247\275\261\301\025>\271;<\274!\225\256\275z\373J=B\243\252:~\333\262=\002ib=\331-\222\273<;\343=\355$\000<\260\240\035>\326\265\332\275\371x\217\275\317m\237\274\245[\206<eF4\274rT\364=1\3356\274s\025\240=\000\t\351\274M\351\237\2730r\346=\003\217h\275\262\237N\275\3452\226\274\330\017\003=lR\252\275\326\261\320=ei\263\275\363\234\213<^|(\275\374\347A<\260(;=,\251c=\253C\036=\370WM=>\037\221< +l=\005Y\322\274\311\025\347<k\303\217\2756\312\373\275Q\017\264\275\332\334\205\275\266_\222\273\221f\327\274\356\320\313\274\267X\207\275U+@>\351\224\336\275\000{\213=\3267\346=:\311k=\360\3616\276\247\017\017<\2530\227\275\222\344\\=:k\242<\"\306[=\\\352\313<\314\333\240\274\233`\212\274\\`s\275\222#\033\274\310oo<\353\373\322=\235a%\275\0073;\275\311\314s\275\251\363\321\274&\372\035\274&#\362\275v;\346<\353H\267=\340\304\225=\003>\332\275\005\320-=f\317?\275?\264\341;?C\003\275\013\256\217<F\311a=)\213|:\205\224s\274`3\205\275\337h\274\2737\342\264=@\332+\275T\363\266:x\217\003>\007l\202\275E\252\210\275\202\227i<4\255\221\275\223Yv\275o!\207\274\214\267\037=\243\343\226=\276/^=\210:\r\275\342\236\221\274\265\231\253=Yay=2;\331\275\307\'\r\276y\275\223\275,\354\226=A\256\201<\372\342\252\274\330\273|=\366\300R\2746\204\274=O\256\264=b\253\250\275\330\323\360\272\347\355]=\226\305M\274\203\036\361\274\211\246U<c\317\007;\031\341f\275\264J-\275\021Y\333\274\351\010.<t\245\003\274o\331\327\274\374i|\2748\226\325\275\346e\357=\205\000\351<\372\266&;\024\320\325\2754\3736=\267\325\030;\227%\016<|(\357<R\302@\275\265\260\376<\327\264>\275A\"\023<\033\032l=\234\335\010\275\245z\234<w\207\320\273F\037N<\276\032\213\275;\214\211\275\374\021\254<\270G=\275q\216\026>\276\350F=L@\005\275fQ\225\272D\265r\275\013\032\224\275\366T\\;\217\344\002>k\256\246<1[\326\273\375EV\275,\223/=\032e\330\274\r\351\232\275\260\230X<\231\246\370<:\317\352\274\210\273\346=\323\374\013\275-d\t\276LMk\274c\371\314\274\371\227\301\274\247,\204\275\030A\033\275<5\246<\236P\332\275\327\271\224=tw\255=\273>\374=I\326\233=\222\244\235=\354\0315\273Kp|=s\256@\275d)\343\274\223+\240\275\333\216G=\366\357\222\275\007\374@\275M+\354<\246s\220=?\021\227=.\346\205\275\324G/<\361\270\307=7\325G\275\261nu\275\0312=\275\3423\347<!\333\355\275\032\365\344\274\311\277x=3\2078=~\252\242\274.\265\031\273\023\244\260:\202\217\262<\350\300\363<\304-\267\275\006Ow=\341e\224\274| 5=\367\322\330\274=K\350\275\377\377\037\275z\033\201\2757\310\242=H\023j;I\303\242\273\266\001\210=W7+=`A$=\255\035\206;g_w<\001\206q<\332\020n=\253\343@\275\226\352\001\275\036\253%<\353\rV=\354\356!=\341%\354\274\t\265,<\361(\002\274\007Z\333\275K\217Z=\342\366Q=E5\242\274\311\025\244\272W\213(;\nw,\2764\363\233\274\033\007\341\274X\203\224<$\272\240< \026M=Gy\246\274{\014\r=\356r\320=\314\t\337\275d\000g<\334\217\026\275\244\\1\275\377\253\272\275?\313:<\335\000p\273\266\243\214\274\320z\244\272\270\312.=\256\245\334<\250\277\013\275\274\365\031\273\302\307R=\251\255\304=\217z\340=\030\365\205\274\032\220\213\275]\270\322\274\267\354\240\274\323\000\022\275.\271\000\275/\330h\275\016\376\235<\300GZ\274\203\311.=\364\3715=\301`q\273\236\334\302\274\377\210\355<[X\020\275\34709=3\006\241\274\206\n\024=\336\322L=\267\350\370;5\317\203=\267+\223\274\244\362\304\274T\352T\275\305x\214=\221\220\341\274\254\267\342<C>\231=eQ\';\251d\234\275DoT=\363&H\275b\230\026=R\030\036\275\253\227\374\273\002:\242\274\\\322[=e\310\316<\207el<\035\001\245\274\365\016\001=I\r\006\2754t\241=\0325\027=Uu\302\275\362\027\306\274e\374\003=\361\361\341=\035h8\274\321\356R<o\263c=\010u\236\274\337\331\216=w\274;\272\373\200|=L\207\241\274j\034\017\275@}\252\275t\241E\275\366\211\"\275\327\025w\275\214\014\000\276/\315\227\274\324\372/=r\r\032\275z\302\237\273PGX<\236\247\242=\255\277\347<uV\252=\264\211\372=or\241;,\274\325\274\317El\275\241\225\301\274w3p=\3238q\275l\274\233\274E\034{\274\000\032\234\275\027\334\035<;\264P;\311\023\003>|c\216=v\002S;\315\277\024=\004T\'\274\004\036\362\274\256]\371<\222\237E\275\006\200\333\275;R\367\274\275\201\311\273~#\334<\321\332\"=\244q\013=t\340\276={~\021\275\312\016\t\274E0\274=l\350$=\301\024\020\275\336\307\240\275y\303p\274S\217%\2741\346\307<\351\2259<4\216\017\275\215\342\033<,\267\206<\367f1\275\301\257\215\274\341\033\231\275\373\233\263=\016G\234<\374\224\202<\371,X\275\213\3314==W\252=\262\223v\275\272\000\254<\331\013M=\256\373\374<\361W/\275\212W\345<I\200G\275+\"\255\275\375\023`=\221\354\003=\226\314\205=]\227\003\275\253\346\351\274\357\314\212\275\212?a=$\226\220\273\355z\312=\215HF=\212\321\312\272\2422\272=\300\264\230\274\344\356.<G\350\305=\0100B=\022\231\263=\243\222f<\202\301#\274\2125C\275I\343\250;+\300\013=\343`\204<\243k\244\275\275J\212=\317\250\257:%\237\256\273=c\206\274\007\260\246\275\362J\351=*\355\r<WP\033=\232\241\245\275lv\031\274\206\333\271\273\224\241\302<C\206\215\275\314\263R=\227\004x<\362\r)=\246\"\215\274\251\365:\275\341\314\201=\340bu\273R\331=\275\253b\356=7\032\263\275\n\305\002\275\211\030#=\007\305\205<b\350d=`\376`=\0346\037<\003\"s=\373\272\272<8\306]<\345g\211<\305\322\010<\234\n\022=\260\267\'\275\251\207\253=\307\375\026\274O\372\270=\263D\001\275W\370\353\274t\347\344<h\214\036=\207\273\021=\240\262\316=\217#\245\274\255\257\202\274\250\360+=m(\312<\304\310\273;\356\354z\275\301\254S\275\341\364\274;x\356\260\274YM\007=\375\346\240\275u@\250=/\336\014<\033{\366\275\002[\314=\t\377T\275\370]\217=~\361A\275\3673\346\274\227)`\275\216\313\200;\035aq<\315\254\307\272Qms=\274Z.=\321\244\257=\375\201\266\2742]\200\275\337\004\334\275\355p\235=\341\3600\275\t\277\374\275\212\213\350\272p\240\205\275\034D \275$\332\254<yg\002\275\264\333\026<:^\261\274\330\301q\275\370O\351<\371\256\225\271\336\354\014\275\033!_\275\036Hv\275\322S\217\274\302pS=\325\342#\2756\347\224\273\3651\036;\002\222U\27584\331<\244\357\010\275\220\213-\272\0070\032\275\324\373\237\275\343,\003\275\206H\303\272\355\373v<\261\376\215\273\243\316\000=_\251?\275\254\021%<\347:\016<k\213&\275\267f\003\275\336\264\204\275\357{\215\275s\372;\275\357\017\206\274V5n<\371t\220\275qQ\215\275i(\3379\317\241\234\275j\344\250=F\253\224=\211Io\275\356\304\221=\263\034\345<\235g\234\274F\244@\275<1{\274Z\257.=kW\020=\314\345\204=\014\244\203\274+!\243\274\3075\000\275\267\377\210\275\210F\025=\305\0369=\240Sr=\315\304\201=L\316\026=\313\262\002\274_W\237;\232\266[=\206\003\236;\032\377\032\275\3362\r\275\022\341\210:\006\245g<(\260~=\2162\365<I%Z\274\205}\360\274\026\255C<Q\265\347<\247\365\002\275W\370l\274\332|\300\274\322\030J\275+\321\211=o\213\273<\027\313\307\272`\002\221\275\024\310\345\274\001\177b\275\314\265%\275\257\261\340;\252\013\007\275Ni\205\275\337k2=\001\235\r\273*\272\230=\024\276*\274d`\275\274>aQ\275.\344\330<\336\300T\275e\326\216;\273\025\003<\017b\033=\350\001\034\275!,\222<\337\020\243\274\246a\336=\342IY\275\357P\205<MgA\275\356bK\274\227k\027=\206_\200\275\220\324\001\276W\204R\275\343\346\357<z\2428=\362\341\215;\235%\350\274\026I\004<\360T;=\211\301M\274Y\330\200\275\324\253\252\273(\242\243=1fl=\271L\327<S\027\376\274\tn\035=\375\363\262<\207M\022>Y\271\177=\316\026\313;\206\230\005\275\273\221a\275\2020}\275\306\327\225\275v\374Q<\357\\h<55\246<!\020Q\275\233\207\366;5!\362<\225\214W<\216\026\274=\217\321\026=\2658\r=,\241q<\231\370\322=}\351\374;q\342\334=R\231\276\274d\031\355\274\024\276\210\275j_$\275HM\275;b\347\242<\263\000\202\275M\275w;\310\313\227\274\337h9=\2026\206=\255\014\327\275\033\3307=|_\237=\315O\207\274gNT=l(s<\352\313K<\242\221\217=$\361\r=\346\361\277\275\367#\203\275\356\026\253<\241\372\'\275\014?:<%\345\314=\277@{=z\0309=JU\355\275\360\3618=IB\272\275XI\310\275\027\222\250=\031\003\020=+\273V=\r\231\024<\302X\027\274\314\2658=.\021\325:\262d\006=\310dF\275u.\026=\321\001\325<\3707\210\274\331;\310\274\024Q\225=\256\242j=U\014\207\274\277\230\235\274b\027\361\275\017p==\224Ka<\271\n\223<\227\245\222\275\240\235\263:\001\245\026\275\250\357d;\323\260\230=aU\221\275w$\025=\375\303p\274\336\371\264\275z\017\255<\204\352\205\275\272\333\321<F\007\016<\237\225(\275\227\312{=j\020g;n\246\220;R\226\035=i\354\313\274\365\023\031=\342\'2\275\322\024\037=\367\006\370=\313\231\353\275M\313\223=\322E\025\275m\310\250<\227d\223=\275\211\331\274i\"~;\251r\316\274{=f=J\367\217\273\r\333\232\275\361\310\025=\355\342\234\274\354\217\007=Ge]=)\251\354<k\306\267\274\370\305\210\275\033\354E=B\243\211\274\355j\354<\215\365\346\274\201\320\000\274\346*\320=\337U\350\273\346M\331\274B\254\223<\254\206+\275h.\261;\251\033/\274\247\006\005\275\274\350\342\275\023%\036=X\016\r\275@R\267=\006\272\244=\005S\262=\n\344\305=DF\272\274 h\272=\325\035(\2750g\263\274\031\220\335\274y\315\005\275\346\013C=\344B7\274\323$\354\274r\3429\275U/Y\275D\351\205\275\324o\227\273\363\255\002<\300>\303<\312\3226=\215\340\003>\353l0\275\'\\\004\275W8\254<~\256\330=\r\0224\275tQ\007=Q\257\257\275\224\024\001>\242\310\021=Kz\255\275wD\232\274J\233\231\274A\034\351\274-;\240<\324\024L\273@TY=\016\272\004\2752\223\020\275\222\256\216\275\227\375\346=\326\026O\275`\267\005<mmp<\001<\025=\240\202\273\275\377\313\252<V\213!\275\207<\215=\034_\323=\341\314\276\274\235E\316=\202,\020\273\031\361\271\275\277\230\237\272ya\317\275\345X\213=\266x\034>\353\212\337:4\216\223\274)\212*\275\240\341\205=\357\202\024\275w\006\034\273\010\331J\2757\026\220<\342~\210=\207\"\215\2758~\253=\315\226w<z\001E\274J\312!=\253\254\322<\361\'4\275\237Ov=\377\310\005>B\177\230\275\017\222\003=\024~\001\275[\272E=\267V\034<\022\t!\275\234\247\003>\237\2220\275\341B\376\273u\206$=\007C\201\275Ze\231\275\247\264\323=\003:\350\275\375`\000>\330u)=\201Z\003\2762\332w=&6\256=\\\036\325<\021\327\213;\207\326\200<\013\2113\275\013X\r>\202\'\277=u:\214=EA\354\274-x\216=\262\345/=k\n\321=F\333\223<9\3675=\300\217R=\371\030\310<l}\317\273\362e\351\273\275~\251\275\303f\214;\320Y\313<\230\332\314\275\r\313\276<\276|\030=\021\002[\275 V\271=\324\340\266\274Q+\005\275\002\0239=\235\r*\276C\246m=&\205\272\272&\333\362=\254\306\027=\274z\242;\372ZB=\217\206\210<\371\2158=\037\343\202\275V\260O=V\372;\275\346\034\267\274\316\355X\275\002\246d<\022\316\345=W\323.=a\374\333<\212\025\304\275\031\"\242\275mD5\275>\3239<\333\272\302=\203\336\200\274\334\274\022>\325\346\322=\304\363c\274@^\201=\263\3377=\023w\022<\232\327\267=\3515\244<\020\235C\275wMY\274\244\344\250=\354H\221\275\020e\260\275cI\344\275\246tZ\275\373\273\363:\264\027\r<\372f\355\275&5\267\275ST\003\276^\252\374<ZD\207\275\025\336\335\274\217Uc<\277\244\227<\364\002\224<\344Y\267;P\341\256\274\r\003\033<E\302\271\274\266\r\222\275k\360\362<\375\177\345;\205\346$\275_\364+\275\221\272\251<\177Y\304:\270N\274\275)$\355=\367\311\367=\317\350\245\275\316\221\367\274B\227\320;e}\351==\220\230;\033\375Y>\275O\353=J68\275\323\363\235\275\202\006\326\275\367\270\207<L\'\202=\020R\257\275\253n\205=o\357a\275\242g\014\276;#L\275\r\330p=\031\357\257=\246HD<\203\210{\273\313\354\350\274i\321\2529\271\t\000\275\300\222\305<\226\263\251\275}/\336\274\302\313\332\274\205\215\366\274\353Q\010\275\370\354\354\273\340\021\222=D\362\205=1\245\213\275\243\252\000\275=G\252=\325X\025\276u\340\031\276\331\017/\275iz\002=\243\340t=\240\334\224\274\333\222\217<\305\263F\275\337\216\254=\261\001\256<v\322F\2755ok\273\247\375P;q\014)=\034D\250\274w\341\253\275\363\021m=K\216\205={\035\257<\304\312\014\275]\227%\275\317\325%=\n\207\005>\277\334\017\275g\024\275\275\226k\252:_\301s=AE\t=\217\252\026<\245|\007\276\340\273\020<\257c*=-\347\274=\210n\002\275\017\377f\275\241\227\247<\017A\274=Z\'\342\274\334\010~\276\303\022\366<P#\003\276\233\'k\273!\335\344\2751\237\006=\240\317\223=t\260\203\275\346l\205\273\310l\000\2734yc:v\330\277:\353{\214\274\371\361\352;\361Yo=\0225\033\275.\352C=\310@\304\274\370}\222\275z9\001>\365\321c\275[\370\227\276\013@\016>,\027P\275\305\036\024\275\376\177E\2745\024B=\333\215\225=v\331j>\235\261\246\274\244L\"\276{\255\347=\254\244\216<!+$=\031C^\273P\204\263\273\006z\331\274c`\242:\263E\325\275S\322\371=^\007\357\274\226\004\210\276\177\252\315=^\311\217\274!\240\244=\364\335\021>\210\022~=\221M3<Y\312)\275\315}~\275\376\363\035=\314\346\233:\364\247q\275I\373^=\352\220M>\203Ru\274`\354K=\315\341-\275\350\304\276\275nT\266\2759\370\202\275\355\321n\274:\252\025=\213\350\236\274?5\223\273\207\222\332;j<6=\010=\254\274\237}w\275\375,\t\275s\205\236\275\017\036\274\274\222C\353\274\376\270\301\274\372\237\346\275|(\246\274\205Gy<\376\271\257\275_/\370\272\r\204\n=\001\343g\275\3643\005<h\275\340;\336\':=K\357\033\273\t\204\254\275\237\253\006<\356\267\373\274s\271\377\274\004\246p\275\032\367\214;\352\221\331=k%\304\273\267\r`\273 =\225\274~yN\275\267\276z\275\357>\304\274\210\330\022\275\327\261@\276\342\253Z=\001\223\330=\016\"\207=Vn+> \322\264=\302\375c\275\250\201\030\275\375\372\"=\337\304\217=\376\216\331\275T \217\274&\2718=\010\254\377\274;\303\272\275\345\272\317\275\225N\021\275l\365,>?\361\025\275\336O\360\275\335\364\026\276\026\212\253=\223R\205<lj\251\275\227\227\354\274,t\030=)\335\257=\307\004\024\274\\_(\276\202\035\204=\243\240\331<\016\322j=\205\n\252\275~\206\024=\331\021Z=T\220\007\276\343\304\221\275>\236R\275\341\365\355=\276\217F\275b\255!\275\003\356\313\275,\323\324<\006\315\017\275p\351)=#\200\357\275\271\337,=\325\233\240\275\264S\344=\202yz\275\260,\022>\r\2622=\007\212\014\276\263\377\330\274\220\002\275=Q\214\205\275y\251\030;\312\336\361=h\332\203\275#\\\035=\342\361\215=\230\275\243\272\212\t\222\275\271;\204=\320\261\223\275\023\230\013>\251G\253=6/\022>$\315\177=\361<\033<\326D/\275\2514\342:\313\210X\274\374\n\344\274$\210\220\275\335\373\234=|\246\002>\031\301\237\274\244\0002>\274\225\307;\366\257\363\273T\2059\276~\211\373\275\245@\001\274\234\314W\275\215\310\216\275~\215\301=\277\271z\275\367f\262\275Yw\257\274N%\252\273\0043*<\000k\275<;T\264\275\273\367\344=R\307b\276G\301\227\275*\343\372\275\\2\020\272\016n\235<\340\031\366:J\303\n\276\307)j\272`z\265\275\356\210\221=\000V\210<\2243\242\275R\336@=w\2075\275\210US\274Q\314\245=,\211\365\275c\"\240<\266\002*>I\030\245\275\025\351\271<v\034\234\275\000:\222<\274\202\316\275\245\3263\271\331\277\337<\220\247\216\275\t\366\"\275\036\023/= \266~=\220\003\320<\331in=(O\212<%\233\314\275\371\270F\275k\023\355<\\56\275k^q=H\354\241<\254\244\337<\234\333\001\276|p{\275wt4\275\330\202\325<\351\036\372\275Q\344\014>\266(\224<B\214v\275L\010\244=\365;\317=Y\232\214;\351\317\235\275\225\203c\275\342Kw\275\356\306\250=\303\300\315=\246V\017\275\0206\232\275\350\257\024\273!\273<\2756P\367\275\022\360\221=\215$\377\271?\236\222=37\371<M\226I\276\201\002\212\2751\255z\275\331\030\304\274\266+\250=[\361\242<\301&\370\275\271u\202=\257\374K\275\366/J<\300\372X\274X\373\234\275Y#\234\275\333\251\200\275\354|\005=Xlg\275#\262\213\276r\300\273\274T\274\030\275/L\227\275\326\361\324\274CPs<\217\230(\274k\360\310;\036\210\270\274\"+\364=\022,\001\274f\2212\275{\312>\2757\260u\275\0107\036>\005\007\365=M\343\023=\372w\300\275\233r\210\275\311\306\027\276\002\260\343\274\343\325\277=\205\211\363\275\204\337K\275\035b\231\275\254\363\t==\010y\274\213r\\<W\270\004\275=\340\232=4\247\325\275\026\207X\272\321\376n=\"\032\035\273\355\321\025\274\276\364\345=\025\277\221\275\336\2365\275\033\003@\274\227\220\331=d\206\342\271sz\231\275\003|a\2756\300\007<\362\243i<\014\227\255\275\240\214\016=J\\\n=\"\253]=v\3008\275iO\025=\303\t\253;Y\340R=\243]\216\275D\225\202=\347\214\301\274z4\220=Y\2711\275w\326Y\275\303\207f<(\200:=k\323\226=\351\357\013\275\003\213\376<FQi=\341\253,\274\024\311\261\275\245\217\363\274\034\275,=Q\256\222=9\230\267\274WC\230<\031T\305<\236D\017\275\013\020X\274V\216P=!\213\271=U\000d\275\313\223\032=\304Z\326\273\247{\253=\222\022\026\275\310]\005>m?-\275\33141\275g\371\260\275b\350,>\035\352O<\335\315\315<\373\353\026<\316Y\217\275\275\243\212\275\344\3677\276\253\017\240=\351\240W=XY\313=\227\0136=\033\006\332<\215\010\356<\301\017k\275\205Z\235=\273\'\346\274\213\034!=\316\031\"=i\260\215<r\316\274=\377Y\200\274\230]\272=,h5=C\377\025\274\275\213\021\275\177\'\206=\227)\352:\207\220\302=s\350\272;\310\222\276\275v\250\347=\373\252\375=@G\351<\232\034\003=\330\031\333\275Nx\332=x\372\"<{\332\217\275\270^\036=Xk\254=OT.\274\317\342\202<\353(\346\275\035\372\277<\313\243\202<\374\177=\275\225&:\275\037/c=E\362\010\276Oi\306\272\343-\262\27523\320<\375 \224<\037\345\205\275@w\340\2731\210\211\274y\275\022>\370\315\323=U\026%\275\302i\026\275L\315B=\276%;=\275\271\202\274\266\177\302\275\026*,\274\267d\225\274L\377q\27550\323\273qSU\274\300\2164<\361\3568\272\276\344q\274<J==\022Y\217\275H\203<\275P\265m=\354]W=\301\226,==\260\324\275j\240/=\030\303);\265\360\014=\013\355\323:H\260$=s\367m=\";\316=\t\242\325=\217R\250\275\20166\275S\2779\275\323\"\210\274\017\274\233\272$\321\221=\267\362x=\346\300\206\275\217\215\257=\277&\301\275\004\334\013<oP\227\274\201\000\204<\"\206\314\274\322\254Q</\264\241\274\347\313R\275\025\367x=\242<\214\275]Q\321<\305\036*\275\031\333r\275\224\017\237;_\023t<\243\245\265\271\202d\222=aK\210<\241/\200=\t\274(\274\235<\213=\320*\232=X\267/\275\242R\264=\005_|<\234%\220\275\234M\323:H\022z=`\312%\275\032\204\206\275m\027\234\275\007\\\213=\302\343\226\275\014\212L\276\367\353\363\274\324\214\007=\276\031x=\235E\332\274\213\351\005>\315\314\246;\344x\360<\020r\207=\306\251*=\035\372\025<wr\\=!,<\275p&\265\274\023e\\=CX\322=\0038L\275P\352\017;\250\256\217=a\225\315<\244^\325\274\244\241q\275\354\371\210;=\327\\<x|\244\275\373\207\010<\224\240\356\274\216\tl\272\211\246J=\036\013\205\274N\271\003>Y\251\213=\252\016\351=\315[\300=03L\275\034!z<\036 \335\273\036q\244=\013\371\256<`K\276\275Ob\'\275\021i\2768\324~\301=\023CQ=%\360\361\275\353\373\224\275\340r\027\275\313G`=\024>\027=\331\270S\274\234qg\275\022\316\235\274\330\267\353<\217c\375;\271)\177=a\340\007=le\003\276B\256\353<\"\351\353=\034\207\354;\267Q\221\273\236,\242=b}^=\224J\273\2759}m\275\237\376\331\275\262\021\344\274\030\250d<D\005\247\274\224\304\232\274\n\304M\275\235\316Q\274\234QT=\0147H=J\315\256\275n\277)\274\340s\002=\263\001A\274\241w.\275\r9\356\274\375U\275\274\016\343g\274f\r\222=\327?\350\274\034le\275\242\177W=\263B\335;8\017,=F9\201<\243.\246=\231\357\233=D\362\010\275\373\005\035\275\270\"\002=*H\200=\0134<=\374\333\263<\252-\303<>\346\373;N4,<E\r\353\273Y7\215\275G\2102=)\337\250<\375e\356\274E1:\275\n\343B\275\017\263\243=R\305u\275n\364~=\367T\250\275Q\302\303\275\233\303T=\216\303\217\274\031\374Z\273\246\215\212<%\352\021=\251\010c=$\037\020>%x\363\274\251\215\365\275\312\007\303=6a\n\2755\245\244=\273\231z=y*5<v\237\220\275\270\025\360={\353\337\275,X\272<!R;=\375\360H=\277\325\272<\275\031\t\274i\274\343< \210\242\275\013\231B=\204\023\277\275\325q\021>M\276\252<{\275U=}B\250\274w\006\262=\204\275\236<\247R!<\315\357\313\274\273\225E\275(\243\020<u\317\237<\035\371%=I\"\221\275\302\251\272<\202\260\035<\205v\241<\255\372\2219\273\204\033=\372\255b:\003\354\177=\254?\302\275*\336\216\275\026\334\017\274\323\023\030\275$/i<\013 \n\273\360\304\214\275\323\r\370=\241\004\320<\253B\252\275\\\303\321<\024\334\267\274\272{t=x\223d<\332\030\021\275Q8\306\274\377\221\001<\325F\254\275\345k\017>r\240\352\275#s\232:#\274D\275\340\3633>\320\007\270<)eN\275\305*\306=\313\007k=\240\332\261;\246\372\246=\321\337\207\273)7\020\275\223B7<MJ\342<\010\355\203\274\031\021\013\275l\225\206\275\374\252u\275F\374\342=d\365\016>\207\340\205\275V\336\302\273\'\341\000=K\'\265\274j\336\235;\331\247\023=CJ\"\275\265;x=\340O\202=A\212\030\275\335\272\333<\244o<<o\325\371\274\027V{\274c;l\273;\276\217=\244\240k=\261p\261\275\213\304&<\340\330\364=x\315\r\274\315\006\023\276v\220\256\274\202\366\236=\305\025\376<\252\005T\275\266g\342<\n\272\021>\262AE\274,|\225=\025D\200;\352)B;\014U\006=\337Z\025\275\027n\355;\221l\226\275\3026!\275n\372>\275l\007y\275zy5=\370\003f>\333\355g=Z\374A\275\260C\273\275\356S\305\275\004XH\275\3362F=zT\004=\321\276F<\306z\276=\356\331\320\275\306\214\357<\237\355\212\275FY\224\275\245\234I<\332\236\230\272dI\242<\205\245?\274^\005\261\276Us)<\247\300\302\273\005xW\275\240\357\371\274\251\370\002<\204MF\275\327\033[<\373I2;\2676\006=\352\217\236<\252\356\005\275\\\307\236\274\375\313\263\275\344\234\310\273v(v\274\277]\362\275\376:k\275\373\025\215\275\013\203\210\274\376\006k\276\274I\201\275\322\030g<\347C\267\273^3r=@9\177\275\026\313*=\255RW<\3419\312\275z0\244\275Q\tB\273\306\037Q\275\247\323\010\275\307@\'=\304k\003\276rA/\275\311\255x=\365\020w\274?C\016=\037Z?\276\367\005\305=\340\266p=SD\217\274y\034\250\275\243\217\n\274\025\237\202\275\310\205\017>d\001\246=\344\236\344\275} \232<\0138\010\276ey\n<\343\277v=f\251z\275O\335\251<D\300\200>Ut\352<\277\010\007\275\261\2226\276\323\276l\273\003\n,<\307}\003\275A\370K> m\262=\302Gr\275\014\314\027>\240!\330=,\326\371\274\035.\017\275\270f\311\275-#Z=Y\240\'=~\205?=\361\212\303=\352\250=\275\211\177\217\273\315\2628>\035\355 =Q\265\213=\215%`=\006\270\334>\344\001\252=j\026\217\273\331\266\003\277Se\002\2754\337\210\275\216\371\206\275\331\360\361\274\376uX=C%\253<\225\014\200\275\357t4=\366\'\225<\205\321\260=\225\021\264\275\256\276\303\275\351\326\236>\251\346,<\326R\014;\0255\201\275L\016\007\275\335J\005=&\336\233\274\n\0237\275\371\\_=y\355\351\273K\350\231\275i\215\025>\002a\312<\3202\372\274\362\361\016\2779XF\275_\003\000=\023\002\210;\\qD=.\253\234\275\0060^=3\233c\274\302\210\300\274\375\032d=\234Cs\273O\2629\275\252%\260=\n\034\257=\327\261\364=o\367\243<V\032$\274\346\037\256\274U\260\354=dNP\275\263\214\355=\247\244P=\034\201\347=\341]\003\275I2F\275c\261\232<|\334U\275\255\232\345<\030z\022<\205\207B\275E\035,=\371\027\003\275\336\311\271=\376\210u\275\177\372\266\274E\013\030\276\001\376\021\275\201\342$=8\317\220<\020\235\211>\200\037\211\275\353\205\202=\257w%=\030]\t\275\225\264\204=<\201\017\275c\013\362\274W\235\207\274t~\035\276\26046\275\306]9<\303\2423\276{\244)\276Sh\037\273\371\202A=\205\275\024>)]\260=\322k\236\275\366\212\305:\014\370n\275\266\313\316=\354\306\266=^\276\213=Y\326\263\275g-\266<\032\237\267<\257\200}\2747?\216=\332\2467\274k_)\275Bdz=\034\212\222\274n\213\326\274\016\312\212\274?z\330=\n\327a;\032\177\315<\336\312(=a\213\013=\006\025\0039.\255\260=/\3210\275\250k\033=\013\325\260<C\301N\274i\331\225;\246\3121\275\223\024j\2757%\213=}\211\332\275\251\210\221;\355\021\337\273=\201\305\274u\005\343<\005\351D<\333\030\001\275x\027\302<\240\366\210\275\232\373\340=\272V\263<\326\311\324<Yu\027=\357\343\223\275\204(H=^\267\177\275mOI\273&\275\310=\275J\240\274x\227\252\275&\035\263<*\231F=\241\331\352<\213\356C;\317\342\t=\272G\201\271\360\002\215\274\233\014\225<\274\004\031=\352\027\340=\036m\200=\216;\221\275\257\206o=g\275\013\273\335>\252=\327#\332=\215#\267< \236\311\275\221\256\021=0\237S\275\233\350\212<\3526B\273c\321N\275\253\232\352;\362\006I\275&X:\274\203\013\240=\266\346C=\237f\244;hMg=\271\325Q=\257\010\263\274\023\n\237<\360\304<=\344O\307=\265\037G\274\270\250\331\274,\372==UI\245=\306p\260=\270\034\027\274\332`\202=18E\275J+\344<\365\221\230\274\315\322\242=\303\225\260<\007l\202\2749\203\274<\235\243\205=2\332#=>@n\274\250\3643\273\372\213b;\363\247\220=W\365\317</\330\210\275\264\t\236\273\301\271\217\275>w}\275z\003\372\273*{\224<\007\253\231\274\340\327\035=\202\034d<\n\325\023\273\215\346\r\275%n\205\272o\237\247<K\346/=h\354k\275T\341)=\006\233\t=^\013\315<}O\205<\210d\n\275 8\370\274\026\334\317\275%\033B\275\277a\260\274\014\352m<\016\264\206\274\340\354E\275\225U\263=\341\275\222\275\r\244\324\273Qc\005\274\305\304T=\237\305\265\275\"t\270\274@DE=\364\236\220\275\241\013\304;\345U\231\274\376L\264<e~\020<1-\314=V)G\275\332\331\026>GJ9=\343\324\375<\357\016\002\274\032\234Y\275\323TE<6\234\306;\016@E\274\344\244\271\2749\224=\275WX\362:\014\030(<<&\214\274\327\023\354\275LZV<\264\230\340\275\266\005\312\274\340\361\005>uM\r\275ML\034\275$zT=\267S\027\274\037\255\211\275\356xH\271wY><-\232N:\320\337:<\206\262\215<\214\212R<\277\205V=\220S\235=X\216\341\274\t\350\016>\365\336\033=\021\211\356<\231b\361\274\005\366\227\275\020G\350\275\264o$\274\376\2248\275\377\'\307\275fv\265\275.\310\232=\3116\001\276\243\361A\274\337\247\001=\257\010\201=Xb\336;\n\014\250\275c\241\272=\027e\213=y\207\211=\324\025\330\274<\254\221=r\332\2539\016\355\203\274\355)\267=\006L\237=|;\214\274Y!:\275\n\230o<c\362\311\275\252\003\235=\322\263\230=@\222\304\275=f\320\275&V\341<\"\373v=\223d\334<\331\240\216\275##\351=xE\256\271V\360=\275\005\325\325\275u\314D\275\355\207\306<Hs\217\275\222\200\322\273\337\242\237\273\r\326\312;O\377\001\2757\212\021=R\211&\276sUa=\3113\003=[U\270<\362\264\216;\277S0=F\020\"<\377\2214\2762\337\240\275E\363\364<\322\010L=\317A\202=\340(\261\273\355\264\331\274\023\250>=z\017\225\275\220\203\210\274\335z|=\242\230|\274F\265\214\275T@\202=\276\017\\=b?\254\274\223\001\017\275\361\347b\275\327\373\033\275S\251\\=L\206\334\273G\350m\275h(\002>\351_\301\274\200\227k=\004\371\264=\032f\330\274\346@\027=z\331\305<\000n:\274\267\234\337\275h^?\275\230\366\245\274\333\341\301=\326\320\022=\036Py=\0060\020<\311q\216\275t\362v<qf\233<\322\n\302<\247\250{\275\2357`<\243\007\223=\177\327\300\275\254\376!\275\326\325m\274\013s,=\221B\006\276\322bn\275\263+\373\274\351\360\"\276A\350>>>@\217\274\252E\023=2\356\205=h\'\245\275%\211\210\275 E\016\275\3234C=\375\346\201\275V\022\335\275\3701?\275v\204\242\275\331\337\034\275mWQ\274,a\305;\352\225a<\253\322\206=\235\330\007\274R\016\200\273i\014\373=\371\373\275<\252S\357\275\324\251*\275\364\030\216<8>\033\2756\203\020\275\372\340\333\275\213\217\177\273dg\375=u\376L=~\353\206\275\270\226l\274#r\274\274\320\316\227<\023\025\265\274\221\203^=Bc[\275}F\224\274kk\007\276ok\340\275\252\036X\2745K\362<\031r\033\276\333\300T=\205\346\223=\222\022\346\275y\342\030=\251\257\311=r\350\031<\353\267\232\274\302\302\177<\212\265\203<\343J\244=zg\302=\243\245o\275\323\323k<\361\006\330\275\307\257\321=\023\035A<Oo\376\274m\324K=j\231\331\275%\205\373=\261\263\355=\033\346#=\037\026\n\275t\341(\2751\347Y<1\226\004\275\313\226\026\274\347\271\274\274;\027\";>\361\217\275\376k\006\275\215d\370\275\357\316\361\274-\267K=\020|\010=2`\014\275t\024\205;\236z\246=n\003j<\323a\213\275\215y\024\275y\262Q\276\370\276\003\276P`\243;\202\t\333\275M\033\246<\331u\317;\200\376*;\256\341\216=\341\335%\275]+\262<\202\310!\275\226(C<je!\276\244t^=\376\017\210\2740^\222\274\351\245\276\274\n\004\312=Jm\310<\007X\'\275!}o\2755\236\240\2755\211\225=\244c\230\274\n\310\317\275\236:\211<\261\004\241\275B\343\n=\302\352\225\274\004B\217\275\340\347\037=\222\3524\275HBw=\270I#;t|\211\274 j\331\274\010\210\330\273\246\037\266<\227\306 \276E@\213\274S\020\220<\234\234s\272\367q\177=Y\257-\275\363%\364=\200e\245=n\351\013<4\275c=\300\230\020\275%]\305;\234)\242=\274\270^\275\352\277\332=\000\374.\273\0342G\275\303\351\020=\372t.\275C$\032>\224\001\350<B\027\226\274\371&\236=\216\341\\<\303\216\341\275\355\315`\2751\r\231=\234}\327:\341;I\275\262S\\=\264\377b\275\376\361\301\275\252\351%\275\216I\311\273\010\307\n\275\212!:\2745\025\376<\301k\024\275\367}n\275\317Z\311\274\035\367\016=\321G\266\275\303\372\353\275\002\306\270=-Y\355=\264\335>=\354\025a\275\246\264\355<\245\263&=5\023H<\210u}<\021\304H<W\035\330\274\257=~=\t\3705<U\252\032>\020O\244\273\241\206\344\275}\247\317\275\355\224\321;\345#\255\275\236\317\320<\177\036R\274\020\306#\273E\3272<\255(!\275l\333\347\274S\002\346;M:\034\275K\352\\>&\037\303=\257\272\350<\303RM=\027J\373<\256\020\346\272nL\326\275\363\236\037;\250%W<x\220\362<l\251`\275k\361Y<\273\341\021\276\300=\353\274\273\271\013=z\200%=6\316\225=\216\335\225\275z\250\314\275\352\n\274<8Yj9\254j\312<\351[\026=\016>\214\274)\226\244\275,\360h=|5\257<\324\202\310\275l\331\362\275I\230V=(\'\t\274\366\323\002\276\250\263\301\274^\241\n=(O\n>/\261\n\275N\017X=lW\222\275p\326=\275\226\262e\275\006\177\334=\363e\030=\364\376`<tI\255=\n\000\005>\261$==\223h.<\326z1\275\273i\263<\202\323\221\275\344\313\215=\000\230\355\273\255\324\254=w\\!\2744\323;\275\304\3302\275\r\013J;\270;\264<\361\023\313\275\2519\032>\355\340\347=\311Vu=\311w+\274`\330p\274\245Z\210=f\373f\275J\327\002\275\322\365\220\275\240\013\220\275\002\335@\274L2\220\275$\177\">\262z\021\271\236\261\010\275[\212+=Zbf<\272V\242=\367\206\202\274-l%\274\265)C\275\363\370\\=\352\204\360=\255D\272\274\034\001\000\275\260!@\274T\270\327\273\355\317\032\275o?\230\275H\231\322\275\233J%\274\313\334\272;\033\215f=\230\264\177=w\225\260\274\312\013>=H\336V\275\375\030\036=A9\344<\341\005$\275\344z\222\275&\336\275\270l^f\275\315!\005\275y\233\205\274\316\235\217\275\250mF\274\223\242>\275|\267\203=sl\235\275\000\241\250<\262b\234<j\310\352=*l\311=\316\331\301<0\256n\275\374\024\201=\026\203,=ZC\302\273\356T\342\275\334A8\273d\373\\=K\013j\275\243\353\032:\323C\026=uq\232=>\244\224<\020\303\337=9\312\215>\027\331\014:\252\234\260=-\323\003\275b\351\t\275\036Q\374\274\3414\251\275q}_\275\364]\241<W\341\351\274\033\361\377\273\243\0318>\330\227\257=\346M\225\273\252Cv=\n\3672\274\204T\000\276\260\016\342=\347\343\032\274\364g->\212\254$\276|\223\223=\275\"\204\2759\253S\274nZ\363<\250Y\345\274\224)Y={%>=\261\\\331\274\331C\311=\203\370\212\273\235\035\245\275\353\202\026<5\245\203<\004\256\r=\233\2553\275\365\240&\275\2115k<\025{\031=\216d\346\275\215K\r>\275\r\257\272\376\356\345=\316\221\234\275\356\312\305\275\271\360\035\275q\004\322\275<\213\177=Xr%=\375\322\262\273\267/\212=\2014H\274XBA\274I\216\264<\017\250S<\314!?\275\332\3167\274\265\324.\274\254\274\220<.\325\254=d\273`\275[\360\272\275$\020\036>\323\032:\275\246\016g\275\352\t\216=\336\306\000\275\270u\230=\332\340|\274I[\233\275\350\313\323\274\200/\255=\3448\213\273I\331G>\304g\217\275\032qT<k\362J=\022\r\273\275\246\361==\356?\030=\213)\266\275\370\323\207\275\366\204R=m\312\312\275\035\220\270=p\315\022\275\357\365\022\273`\352D=\330\322w\275\250\210\004:\226B\301=,\203$\275\031\304C\275\204W\021=\276\013\320<\"\307\363;S\325\335=R3*\275C\271\034\276v8\000=\377v\270\273BB\330\274\250\264\351=\301\027\355<\362t\005>&<\337\275F&\000=\261V\241=@\367\223=e\227\244<\201z\245\275\333ed=C\245\231=Z\027\336=RUp\275S\334\004\276\263s\200=D\2154;\037\363\t=\261\\f;\274\221*\276kb\340<\']\317<\225\314\242=9_\201=\024\312\225=\232\007\262=m\270\014\275e\206\021\275\356Y\266<F0P\275r\362\367;\326/\255=\312\321\007\275\t\251f=\r\271\005=,\357)\276%3\200=<\224A<]\214\033=.,c=>\273\342\275\031\376\'\2756\004*<\265\337y\275U^\020<>G$\276\216\340\003>{|\353=.?C=[#\330\275_E\305\274\314\322 \274\270Ku=&\214\010=l\362\177\275\215\336\266=1\3229=\271\261C\275\262^2\275Sw\200\275\014\335}\275\266\273\303=\r\232\241\274\034\034\233<\341\311\327=\251,y\274\224F\221=88\253\274\016/\260<6=\377=P`\250=\273\'I\275\276\343\035\274\330\246:=q\n\263\275\017\230\253=z\210.\273\300\362!\276\203\2355=\226\213\224<\326\242|<qPD\275\177G\243\275>\313\306\274\251f8\275\237\354\271\275\0242\301<|^\'\276q\243\314\274\342m\363\274\342\277V=\225d)=\360\010\204=v\323\034\274\302\374\307=\355\t\217<\334\374\267=\343l\202\273y\203\005=al^<\241\234\\\275\3765\236\275\370\247\350:\005\031\023\274\252\232\024=wz\220\274 \274\214\275\034N\247=\271\036m=\276b\205\276e}:=\210\205b=\"_Y\275\351\343#\276Fn\233\274\345\325r\275\211\235\006\275e\376C=\252\211\232\275\266\026\027\274\201\261\273=%\237\031=\250\365\247<\221\025\261\275\013\022\266<\272\010\350=\340\300\320<\366C\232\273*\357\302\275k\244%==A\201\275\t}~\275c\332e;\242\250\216\274\300\333\023>\325\025\232\274H\201\013<M\202\251;\342\032,\276\365\230\234=\234\013m<*\363C<A\3106=\377\350\321\274\321\024\365<\030\222\232\275\275\355\177\273FB_\274\2442t=P&@=\203m\302\275\256\t\344\275\240\212\032\274#\342\275<1\202G\275\217\364\372<\334\323\020\275\204\021L\275\226\306/;\021\250\325=\254\366\000\275\000\242\275=\321\205\220\275\024\225\262\274$\020\260\273\016\250t\275f\036u<\216\003h<\246e\311=\271\366G>\200\211!\273\n/F=\374|\177\275u\310\377\275\270\204V=\016\033\005\275\244\\\023=4\007\256=\323.>>\3008\233=5\232\220=e\353\276\275X\241\202\275\336\276\t\274\275\\\037=\370o\255=\363j\227<1\377\303\274!n$\274\177\307\242\275\rq\327=\206\317\023\275\366\360A\274yd\201\275\322\034{\274\337\310\262<\266\245\323<\303BT\275\255\306\300\275>\336\234\275\213\020k<a\362&=\013@\n\275\254\036V>z\213\037<\326\260,\275\310\245\000\277\242\rH\2754\014\231\274%\377\230=\305$\265\275^\371\260=l7\205;0\370\215=\225\201\267=\251Z\032=*\353M=\304/\220<\\*\235\274j\201!:P\017\274<W\253\020=\341\305\206\275N\264r=*t%\275\'\023\371\275&\344\212=\323\366T=?F:\275De\224\275\226\232\t>\252\271\263\274\237\2360\276c\227#\276\325PH\275q\260\311\274\322\257`=\334\321\307\275\321R\321=B\311e=e\361\333:\257\353&\275\274\331(\274B\006\014\275\254\277\001\273\025\317\202\274\2036;\275\267\353\210\275\234}\221<@\360f\274\342K]\275\325\026\256<\360\252Y\275X\374\004\276SO\270\275\226\337\013>\212\224(=y\005\217:@\261\203\275\336Ut\274\320R\303<\327\260z==\220\350=ml\034=\r\275\376\275\r8\014\275JB\311;\230K\276\274\2326\275<\263\352 \276Rw\014\275@\221\"\275\203g\007\275\202\2416=}\017\263<\023\232{=s\000d\275(\035\016\275\003\211\330=i\340M\2750\256\217=\241\231\r\276hh\234\275SUU;\020\217\306\274$\261\310\2731\031|\275\247\366\221:wY\r\276\200(o=\302\267\256=(\225\276<\222g\013=\271\245\377=\337\035\340\275\260K\277\274\361\032\224\273>\325\r\274ar5\275\303vK\273\231\333\357\274\371\321\261=\305k0\275\0374\247\275z\005\255<\216c\247=\255\226\344\274\250\016\016\274\263\264>=|\276`\275\352\203h\275\025z\356<\361\342\n=\367g\313=\223\t\265=\337\320\200\275v\343\214=\233J\364\274\005n\321=\367\344W=\331e\016\274\036\200\252<\2141\257\2756\330\311\2757\"\014=\365\027\001\275\2243S\274\300U\202<\300\262\007\275Z\024\215=\351\321\315=\305\016\031=\030\377f=\246\205\'<\245]2=z(|\275\206%%=\357\356\347\274\274\255\326=\362\204\244\275\017\236r\274\322\214\033\275\341u\260<\372\017(\275)g\210\275dQ\203\274]\304\227=\324\277O\274^u\330=\313\021 \275\254\304T=.\306\003<\215\367:<\212n\036\276\310\261\254\274\321\026\r=\021\336w\274\332\014\343\274&\234\263\274\350\352\247=\t\005\260=/\224S<f!#\276Ei+\275\302\006P\275\013\032%=I\337\007\276\'\234\367\275\242\216\213\274P\333\223=nU\032\275\247\255;=\235}*\276\177g\r\275\004\325\213<H\250k<\315\023o\275\310*q\272\037L\235=w\337\202=\261G\036\275R\230U=\036\\\244<L\250\226\275\016A\357\275R}\235=\303\212\037\275\352\000\021\275\332M\272=\261\252<\275?w\260<{\261\005\275\250#.\275\222B\357\274\357~\010=Z\177\021\275\347\206\232=\241}-=\323.\023\275ch\027=A\234\250\275\322\006\006\275\307\270\003\275u7\343\274\214\365\010\276y\364\216\275\302\373\326<\270\304K\275\220 0\275\323\n\222=+\007)\275g,\314\275\340b-\275\235\002t;\253\261C\275\245`\225\275\3620.\275\351\242\344\275>\221u\275\240\334\001=\233\326\277<\032\221\232=H\245\021=\274\332e\275\305?o\275`{\037=Ra\340=U\374\233=|\346\217\275k$\365<\243\263:=V\345>\275\200R\017\275\222\030\250\275g\236\212\275!\316\315=\202z \275I\225\031=g\241y=\000E\024=4t\177\275\347z\013\275\340\373\203=Y\316\365=\022\365\340=\234\303\251=\207\361\034\276~\367\366;\367\324\245\274\026D\213\272\331\277t\275[\334\021=\320\230\327:y\320^\274K\232\026=\233Y\301\275\265\037\021=\317\316\203\275\033\276M\273\236\t\333<\211\036\'=\344\001\374\274\033\246\275\275\014\030\365\274\220\343\302\275\315u\026=\362\000\000>YO\373=K\334\216\275\253\206x\275B\274E=*\237\240<d\317\004\274\023R\271\275\266\271\327<3\261R<V\272\242\274\341A-=\364\266\265\274:\276\253\275\273\275\354\271\023w\303\275d!\003<\277\207*>\353\236\014\275\210\2165=+\031\213\275+\241\275=\023\256\232=\322\261\245\274\331\355\317=\311\035><\t@\237\273\265\010\220\275\203Q\022=\301\267N=\341\257\215=:\214\220\275\362\0235=\333I@<o\021\037\274\331\335\203=#\314\301\275\035&\020=\307\322+\272M\205\222\275\346\276n\275Y\260X\274\312\335\230\2743\252\200=\022\323\357<\027Ww\275\371\341\"<\201\005\007?\241q\220=\232Dh\275\242\224S=\236\010\020\276\'q\215\275h2\277\276\261A\017=z;\266<\027\216R\273\362@\243\275\244\201\334\275\325\1779\274\241\246\351\274\016\003C=W>\312;\025\3500\274\035ii=1K\316=\250>/=\025\210\347\274\024\000\215\275|\247\257=\251jL=k#\304=-\021\237<%\205\347\275\301\356,>\250\301\032=0\260\002\276\017-\341=\030\330.\275#\005\236\274 }\224=\331\335\263=rK=\275\373\255G<\030]U=\302\266\263\275\177:\302<*\354\271<!-;<<\313B=\023\036\240<\003\000\233\275#\246P=\366\354\327\274\231\\@\275&\244\243\275\304\231\226\275\270\230\366\275\357\354+=\354.R<\320}\205=CS\376\274\270T\206\273&\345\326<tZ8\275\004i\025\274K\3146<\231\323[>\021&\327<\207\206\354=\373u\370;\233k\244\275jg\250>\013+\037\2759\375\373\2734\306H=Kn\213\275\020\036l=\357\370\356\274\344\370F>?\222\360<ZR\224<Jr\034\275\314\3457>\213\330@=\353\363[\275w\007\217=\336+4\275\256\251\225=\344\321\004\275\325\341\224\274\035<\234\275-\204P\275a\355\377=\2605\000\276\324OE\275\265\317\222\274.\024j>\215^g\275R8\345\275\345>B\276\250\247l<\255\235\035=7\037\322=A\247\313\275\325\325\276=\213h\034\275\212),=\346\2650\276h\027\346=\372S\224=\310\377x\274h\304\251\274\013\037\326\276\010\361\021\275\345\315G=U\237t\275\014\031\037\274\232\353\337=w\t\020>pf\350\274\217\266\324=\237\364\275=\257\320\222\275s\005\031=\336n\311=[\202\t<\336\373\343=\t(\216\275\204B\212=K\365\273\274\252*\230:\273\350\201\274\333\233\005\275R\301\303\275@J\225<\344\344.=q\312\266=v$\255<,\264\220\275|l\233=+\3660>\024]\360\274\231\247h\275\275WK\276\376\243\232\272nh\234<\335\0031>\361\tL\273w\277h<b\255\301<p\301x\274C\"8<\225|/=\031K\022\275\256\243 \2751\332\263=\204\026\374=5s\244\274\025Q\212\274)\001W\274vK\222;\370u0\273\3334\262=\261\200\211=\227\327\373<\236\232\213=u%\233=\353\372\245\274\032\303\264<]\207\025\275R\344\034\276~\316\345;$3/\274\017p\226\275\346>\311:\r\272\364\275zq\332=\024\"\016<\'d\002=m\303\245\275FD\255\273\345G\235=\226,?=\207+\014>\215\345\207=\252\252U=\273\302\317=\350\000\010>\341i\216=\373\235\224=)\372\275<\336\223c;\270\035\334;\251\306}<bd\023\275H\222\010\276-\264a\275\213\276\210=`\314\323\273p\327\355;\216#\215\275\317K\224=L\244(\276\244\261\354\275\242\310\230=Za\005>\240\016\321>\222\017\'>\255\326g\276\n\204\240=\261\226\022\275\224\357D<\235\240\007\276\352\251C\274\211\010\307\274@)F\274(\177?\275\354R\355\273\031F\016\276S_3\275[vw\275\354\216\205;\306\206\036\275l\026\031>\n\335X=\370\326\366\274= \'\275K;\341<\031\231\'=\313\304G\275z\213\244=\372p\305\275\315z\367<\3410\033>\231\026\303=he\217\274\344J\300\275UW\332<vtd=\332\265\000\273\314\362\204=\023\265@=]\262L=\355@\304\275H\002$=D^\214\275\000\206_\273\344\362\005\275\346\320)=\204\340\035=\247t(\275_\240\312\2754\315\n=\236i\274\273\003\240g\275$^\260\275\374Z\243\275\213\372\322<\3378C\275\325\255\201=\035\267\344<\026\352\277=\022\204\035>\027\200\014=INP=\333\235\244\275\315d\231=5\201\014<\330\023{\274\004\016R9\364\235\247=\201\204\220>}\026,\275\216\021y<\331G\006\275\005m\000=\236 *;\233Uc\275\224\336\325=-!\210\275r+\232\275\316l\212=2\230\235\274`\226\264\273\000\201\001\276\277m\344<t\226\205\274\215Eu\275\215\020d\275S\304\231=\260\034\336\274\242\031\236\274\021\242\265=G\201A\276bs\357=\301\251(=\347U\000>\347\253\340\274-\334[\275\037\2740\276\334\215\337=S\260x=UA+<\351\230\315\275\326\255!>\t\307!=\211\304\024\275\030\342\014\275\331`;=UZ[=jj7\275\257\315\315\274\r\000\350\274\342\347\023\275\303\233\322=\331\213l=\221\007\244\275\345\031j=\337(p<\241\206\020>\"h0=O\326\360<\371\227\211\275p\r5>2r\234\273\031\360<\276\246\375\212\275BbI\275B\217;<\034\340\230=\204\367k\275[k\213\275)n0\274\025\336\250\275KD\017=\337UX=jn\006\276F\362\007=_Qn\275\241.\202\273\201r\206=3`\253\275\337?\310<LD(\275\361\306\237\275\215)\252\274\244\316\325=\325VH\275\277/\007>\200TR>/\325\306\275`\254\251=p\226\373=\370Wc=\3745\203\275\010\225\003=Z\266#\275\232,\331\275^\'\366=\214/\201<\n\362\322\274\003g\200=\336u\231=N\262\246\2741\004t\274\000Z\272=\254[\314\275\332\265\001\276\231r\274<\022\024\036\275\010\2413\275\220\240\036\276\267)\343\273\351\224\"\275/;L\276U\375\364\275\024\3533\274Mq\310=\002\273w\275\245M?=\036K\201\275KHT\276\300<\267\275\201\337)\275\274K\327\275\020\261\275\272\366\312\002\276\256g{\275\331N\241=\233I\245=\003Os\275So]\275\206\211\241\274m\245\221=8O\261\275\334b\273=<T\021=\350\231\277\274~\260^=9\240\206\274\206\242\205<Ee\375<\177\201W=q\246\344\273\375S\330<:\210\'\275\373x\254\276\376\307\236\275mZ\217>\251m\207=\352\341==[\026\307=\317I\267>\024\333\356\275\304&\034\274\"K\016>\'\361B>\274\200\321\275>\265\337=\217)\025=)\212O=\006\374G\275l\206\250=\026Q\014\275\037]s\275\227\323\004=+\004\250\274>\020\366\274\224\304\214\2751[K=\362\350\270\2756^6<v\003\240;Y\311\t\276\003>\033\275\014S)> -.=|\357\201=@\003z\275\236\247:\275\316Q\222\275\250\250a=\000\277k=\013i\0029\036\035\202=\n\t\005\275\365\221\237=\332\n\301=O\200&\275\023\242h\275\217\373^=u\252s=W\233\306\274\266\3731=\255f\253=\032\025`=+\202P=YR\231<\362\302H=\216\220L=\353h\024=\277\021%>\357\355U\276F\000\327\274\226.\234\275K;\320\275\362?^\275\367Dl\275\347\316\273\275\231J3\274\302\203\265;\002:\371\275\305\376\240<\344\222\252;\006q\307\275\206z/=J!\234\275\022h}=,\024E\276M\325\241;W\314\321\274\350\036\034=HtC\275z\303V86K)>\020n\014=\036lA\275\0305\237\272D$E\2759\210\312\275\026\312Q=\355\324o=Q\'\027\275\322\370B>T\345l\275\325\307e\275D\330\230\276\344\020\t<\027\231\006>Q\327\310>\002:o\275\342\314\025=\350\032R\275\345l\313<m\322\235=fp\264\274^\237Q=\233\014\036>Yl\216=\200\210\240\275\023\033\007>\232\361\254<\271;\230>J\353h\274T\025\335=\331N\204<\243\302H<\"\rB=9\223w\273\354W\271\275j\231\303\275\313\322:\276g\316\276=\n\0235\276\265\342.<\220<\021>\351\224\245=\306\037\364\272Az\r\275\314L{\275\037\320T\275\300\200\025\275\024\031\230=%\332v\274x\3137=\314,\307\273\"\265\205\272\224\2349\274\014\257K=\3559\010\276I\356L\276\324\204\215\274^O\265=\254\324\200\274\346\017\336\273\254c\237\275\203\211u<\365k\031\275\014:Y\275\242\253\221\275\222\004\366=j\036\016\276\224\2505\275\241O\214\275\304gM=\367\370b<Q\010<\275\271V\364<\276M\217=\021\035s\2756\251\036=\303W\253;3\0317\276\247\006\215\2753u?\275\226\030\242\275\2243\027\275&*V\275\2226\265\2753\244%<\266\316\032>\326\371\004=\202\242\376=:+a\275\006+}>G#\264<\r\300.\275\263\032\013>ZvL\274\221h\007\276\354\255\352<\211\265 \276\276i:=\376{\246\275\230m\322;\263\n\237=\r\307\252<Xy\205=\r\177\303\274\316Z\213\274\272\237*=t_\200=\024\3344\275B\245,\275\363>\223;\026O2\2754\243L\275\033.\265=2\267\377\274\314L\215=\007\303X\275\031@\225\275\310JU\275\214\200E\276\243\331\274<On#=n\255\260=\213=\254<}_\270\275Aj\253\275\300K\336\275a\303\255\275\252\227\026>\033\340\200<+\314\261\275\224\375m\275\203\007%\273\305\351\225=}1m=\303\245\270\275l\233\272<`\013\035\275 \0142<\210\001\006>|\272\020=n:\023\275\326\214\000\275A\223\356<Q2\202\275*\375\247\275\235\254\034>\233m\021\275C\334\001=U\312$\275\177\241\373=\026\214\277=\235\336\340\274\312\n\253\274\235\000 =E\312\257;\220\310\256=fp\360<@\270\245\275^Z\035\2741\272\247=\007\337\203<%\326R<\r\345\300\274\021\335\373:k\370Y=\220\231\367\275\252\367P=\360\361\340<\314\252\314=id\264\274\205q\254\275\231\307\255=\224\334\262<\030\327\336\272\354\251\263<:n\214<\350\270\030>\030\304A<!\300\345\274\201qZ=\361\034\312\275\037\\\014\274\374|P=\277n\351\274\'\241\n\276%0Z\275\274\036\325=]\312\021>\220\313\261\274\007\333\031;\252W\030=\276\210o\275B\247o<|\n\211\274\344e\374\274\212J~\275@\372\005>k\317\014\276\376\025h\2741#s=\275\331\303=|\311\000\275\316_\364\274`\344\214\274V\027\025<\346\234x\275o\306W\275\361\254\311={\313\220\275\315\021\232\274\314\275\246:k\333\243\274o\247\337=\277\313\033\275\037\267\225\275K\252\315<)\300\302=~S9;;S\277\274c\271\000\275A\353\247\274}\271J;\345_D\272\215D8\275\027\2547=\340\301a<\361%\031\275\364\272\374=H%f=_\363I\275\361Q|\275\223\257z\274\303B\241\274\t\007\t\275\360A%\274\265\353g=\372\033)\274\r\241\211<p\303\022=\210:M\275\303\242v\274JZ\253=X4\252\275\202\034`<u\224\\\275X\323\266<\241C\":GTE=\351\313\312<\207}\032\275\372[m=\225\240\n=\210\273!=\010Q\223=\343\002\235=\203\243\017\275+y[\274\347cV\275\305W\017<kfA=l\302I=\235-\231;\275A\254\274P\311t=K\267\215=\236I\003;\026<\026=N\016\212=\333\n\224=P\'\206<\304\210\"\273b@\226\272C\n\241\275N\267\263=\014\220\201\275\264h5=sR\">\347\316(\276\355\022!\275X\\)\275\237,\020=U\201\033\276\215\204/:(c\216\274\226#\214<\013D)>\206f\304;\036\224\336\274\223\364d<\006]\267\275V\2679\275\316\367\227\275\331\275\357=\270\240\306:\252k\242\275yk\220=:o\022\276mV|;;V\341\274s\351\250=i\023>=\"\265X<\311\306\204\275s\340\213\275\003\263\330\275\221\022!>\331{\032<\272\346T\275\217\013S=2\206\224\275\033\"\216\275\373\036\276=\221\335\006\275\241\346\274=\267X\232=i\221j=\231\240\210\274\304\277w<\352\013F=\214\r\001=\341NN\274\000\323\322=J\247n\275\005\266t<\236\356\261<Y\354\240=\006n5=\200 \317\274Qp\250\274Z\231\'=\347\370\363<\262\307:\274\246\215\017\273\372\022\000=OE7<\277+\021=\337\260\210\275\t\265-<\367-#\275\020\223p=H\247\277<\317\t\005=\374z\201\274\320P\316<\346{Q<\350\000\240=L\320\035\274BvS=s\220\301=\214:\216<\300s\022\275\227\']=<\027d\275\001\342\306\274<\336\254=\332\372\256\274<\020\177<\237\337\210\275U\ri\274X\016\013>@\177\201;sa\306\273\317\362B=2\211\253;\t\017\317\274\3725\271\274\264\317\233<XZI\274\025\334\035=\177\260/\275\305T\033<\334\3456\275+f\245=)\036Q=\301{\320<\301 \022\275\300\305T=\256:\220\274\367\233\224\275\316&\375<\020\325\031\275v!m<Z\212c\274hO6\275\024\036\010>\027@\372\275V}/;g$.=2\312\332<X\336\377=z\262\204=\305\205i=\033m\370;#G\364<\236\034\270\274*\331j<M\201k\274 \265\224\275Z\263\357<Z\243.=\270\362\236;\374m\205\275\335\376\220=\245\200 \275\263\303\235=\340\212\331<\256\227R=o\376\260\275\364\244i\275Q\024\307\275\306\241\021\275\370\321\312<\007\t\214\275~\237\203=u]\300\274\322\202\201<(\377\"=Q$\031\275\\\346#=\364\304)\275s\351?=\217Je=\277!\275<\204\224\305\273\225,\321\275\365V~\275\375\311!<\361O\200\275}s\274;\246\267\234=\263\266/\275\205\244 <S\275\236\273%&!\275\335_\340\2741\205\277<\343\222\264:\377O\235=\320N\204\274\247\331G\275\"\177\220=h\032\032=\345\255\036>\2357\342\275Ng\262=q\244\230;]\0350=f\323\002=\232^\036\275f0\272<$\223\365\275\362\211\016=ii\212\275\246J\254=\201\373\365;\377\351J\275Z)\246\275\007\355\224\275\325\331k\275\300\2503\274\322\255\226<\253\270\203\275\220\354\240=\253^\374;d\373\303\275\242\270\331\274\212\200\344=\252\031\035=\230I\221\274\366\'+\275\262\342\221\275\277\016\002\274\377\303\035\275\354\367H\275~\255\r\274\216\002P\275\007@\215\274\262\364%<\306\244\027\274\200&\207=\177\257\216\273;\371p;.\370M\275\030\3259<0\350\233=D\362{\275\2522-=\375\212\267<\246=\225\275c\245\340\272,\tk\275\370\367\014>\326]\214<\346\202\245<\250\275I=k(\371<\2635p\275\010\177\3729\231\360`\274\006\226r\275\236&\357=\032\207\223\274\333\364\017\276.py\274\331DD=\313a\216=\275\372\200\274F\246\001>4\223Q<\236\212\315;\021\365\246\275\210\244I\276\373\235\024=\t\004i=\364\243\010\275\030\006\347\274\022\276\276\275t\325\001>\256-\244=\222\365\362\273\221xn<\337\360\'=]\337\2729\373\003\225<\370*\312=\241m\254=\t\215w=\226\224\270\275\246M\347\274\351\026\254\275~*\234=Bb\320;\0029==\010{\206=\277r\010=\232[\261\275\342\225\334\273\355tU=\013\304X\274\260\367w\275\'\210\276=\000\001\205=S\263\264\275\317\324\331;<\357\010\274\003\3755\275\236f\246<\370I\010=\237\246\350\274_\341F\274V\020\016\275\177jf\276\3317\356\275i^&\276\023\344\350<PN\030>\270\343\207<o;\342<\027\213#\275\375.#=\206\362\335\275\025:9\275\\z\261\2741%\325\275\220\031\020=\361\307\361<\277i2>\213$\303=\350w\341\273\222\245\000=\336\371\t>\274\356\254\275 \266\200=\266\326\024;:\365\033\275I\203\276<\276\353\221\275\201C!\275\305C\n\275\330\323\360\275cay>V#e;\032\266\364<\'\243<>\247\377B<\313\211z=-\037\232<ar\245=s\225\233=]\264\336\274\200\267\021=\343\332\026\275\300f\267\275\270\361$\275($\010=\345h\005\275h.\221\275,\214\004>\201\375\n\276`#\312=\276U\361\274\225\352==]*\302=\2525\341=8[\231\275\370\257\2639\246\2001\275d\244N<K!\321<\267\210\330=9|\021=\330\272\335\275S@%\274m\213$>,U\216=L\364\227<\244/\032\275v?n\275S\224n=`\267\304=\376\207\312=zr\211=\027\000`;\t\266k=d[\024\275P\364\243\275t8\310=y\"\027\276\321\223\225<B{\341\275\261y\342\2752\354\323=\215\332\217=:;M=\006\375?<2a@\275\262bN=\244\300E<\376\255[\275NW\027>\200\271\271=\037\000\003\2754k\021\275\232y\372\275\3438\203<\275\3355=\341\t\017\275\016\002\3629\246\0377\274f\331\252\275\235cH<\256\227\260=\224\260\363\275X\221\333<\375S\014=\360<\204=\320p\"=\315\031\002\275\357\003\r>\221)\313=/}2\275\3622D>yl\t\275L\007\345\274\357K\306\273Ar\224=o\253\341\274\236\210\020\276\236\325\216;\357\267\232=4\205:\275\370J\356\273\337f\234=\016\"L\276\004\315\371<\037\234\211\275\351\032\365\275\345\2766\275\257\257+=@\335\237=\031\222\352=\001\3301\275k\246\036\273%\021\344=\331.\001>\352Cj<\005\213\310\275\2239\233<*\2475\267\333\014\002>\365\210\245<\217*p\275\222\274y\274\367L\022\275\032\203n=\250m7\274l\211&\276\20692<$c\325\274_\314\013<\356\214\223=l\022H=\330s@\274N\362\301\274\017|d\2752\300i=~\252\231\274\331[\022\275\375\374\035=\177\253\352<Sm\201\275\3300\014\276\212\367\001;j}M>gP$\275\320w\023\275\034\'&\275e\2513=\377\370\354\275 